{
  "version": "1.0",
  "truncation": null,
  "padding": null,
  "added_tokens": [
    {
      "id": 59246,
      "content": "<|endoftext|>",
      "single_word": false,
      "lstrip": false,
      "rstrip": false,
      "normalized": false,
      "special": true
    },
    {
      "id": 59247,
      "content": "[MASK]",
      "single_word": false,
      "lstrip": false,
      "rstrip": false,
      "normalized": false,
      "special": true
    },
    {
      "id": 59248,
      "content": "[gMASK]",
      "single_word": false,
      "lstrip": false,
      "rstrip": false,
      "normalized": false,
      "special": true
    },
    {
      "id": 59249,
      "content": "[sMASK]",
      "single_word": false,
      "lstrip": false,
      "rstrip": false,
      "normalized": false,
      "special": true
    },
    {
      "id": 59250,
      "content": "<sop>",
      "single_word": false,
      "lstrip": false,
      "rstrip": false,
      "normalized": false,
      "special": true
    },
    {
      "id": 59251,
      "content": "<eop>",
      "single_word": false,
      "lstrip": false,
      "rstrip": false,
      "normalized": false,
      "special": true
    },
    {
      "id": 59252,
      "content": "<|system|>",
      "single_word": false,
      "lstrip": false,
      "rstrip": false,
      "normalized": false,
      "special": true
    },
    {
      "id": 59253,
      "content": "<|user|>",
      "single_word": false,
      "lstrip": false,
      "rstrip": false,
      "normalized": false,
      "special": true
    },
    {
      "id": 59254,
      "content": "<|assistant|>",
      "single_word": false,
      "lstrip": false,
      "rstrip": false,
      "normalized": false,
      "special": true
    },
    {
      "id": 59255,
      "content": "<|observation|>",
      "single_word": false,
      "lstrip": false,
      "rstrip": false,
      "normalized": false,
      "special": true
    },
    {
      "id": 59256,
      "content": "<|begin_of_image|>",
      "single_word": false,
      "lstrip": false,
      "rstrip": false,
      "normalized": false,
      "special": true
    },
    {
      "id": 59257,
      "content": "<|end_of_image|>",
      "single_word": false,
      "lstrip": false,
      "rstrip": false,
      "normalized": false,
      "special": true
    },
    {
      "id": 59258,
      "content": "<|begin_of_video|>",
      "single_word": false,
      "lstrip": false,
      "rstrip": false,
      "normalized": false,
      "special": false
    },
    {
      "id": 59259,
      "content": "<|end_of_video|>",
      "single_word": false,
      "lstrip": false,
      "rstrip": false,
      "normalized": false,
      "special": true
    },
    {
      "id": 59260,
      "content": "<|begin_of_audio|>",
      "single_word": false,
      "lstrip": false,
      "rstrip": false,
      "normalized": false,
      "special": true
    },
    {
      "id": 59261,
      "content": "<|end_of_audio|>",
      "single_word": false,
      "lstrip": false,
      "rstrip": false,
      "normalized": false,
      "special": true
    },
    {
      "id": 59262,
      "content": "<|begin_of_transcription|>",
      "single_word": false,
      "lstrip": false,
      "rstrip": false,
      "normalized": false,
      "special": true
    },
    {
      "id": 59263,
      "content": "<|end_of_transcription|>",
      "single_word": false,
      "lstrip": false,
      "rstrip": false,
      "normalized": false,
      "special": true
    },
    {
      "id": 59264,
      "content": "<|code_prefix|>",
      "single_word": false,
      "lstrip": false,
      "rstrip": false,
      "normalized": false,
      "special": true
    },
    {
      "id": 59265,
      "content": "<|code_middle|>",
      "single_word": false,
      "lstrip": false,
      "rstrip": false,
      "normalized": false,
      "special": true
    },
    {
      "id": 59266,
      "content": "<|code_suffix|>",
      "single_word": false,
      "lstrip": false,
      "rstrip": false,
      "normalized": false,
      "special": true
    },
    {
      "id": 59267,
      "content": "<think>",
      "single_word": false,
      "lstrip": false,
      "rstrip": false,
      "normalized": false,
      "special": false
    },
    {
      "id": 59268,
      "content": "</think>",
      "single_word": false,
      "lstrip": false,
      "rstrip": false,
      "normalized": false,
      "special": false
    },
    {
      "id": 59269,
      "content": "<tool_call>",
      "single_word": false,
      "lstrip": false,
      "rstrip": false,
      "normalized": false,
      "special": false
    },
    {
      "id": 59270,
      "content": "</tool_call>",
      "single_word": false,
      "lstrip": false,
      "rstrip": false,
      "normalized": false,
      "special": false
    },
    {
      "id": 59271,
      "content": "<tool_response>",
      "single_word": false,
      "lstrip": false,
      "rstrip": false,
      "normalized": false,
      "special": false
    },
    {
      "id": 59272,
      "content": "</tool_response>",
      "single_word": false,
      "lstrip": false,
      "rstrip": false,
      "normalized": false,
      "special": false
    },
    {
      "id": 59273,
      "content": "<arg_key>",
      "single_word": false,
      "lstrip": false,
      "rstrip": false,
      "normalized": false,
      "special": false
    },
    {
      "id": 59274,
      "content": "</arg_key>",
      "single_word": false,
      "lstrip": false,
      "rstrip": false,
      "normalized": false,
      "special": false
    },
    {
      "id": 59275,
      "content": "<arg_value>",
      "single_word": false,
      "lstrip": false,
      "rstrip": false,
      "normalized": false,
      "special": false
    },
    {
      "id": 59276,
      "content": "</arg_value>",
      "single_word": false,
      "lstrip": false,
      "rstrip": false,
      "normalized": false,
      "special": false
    },
    {
      "id": 59277,
      "content": "/nothink",
      "single_word": false,
      "lstrip": false,
      "rstrip": false,
      "normalized": false,
      "special": true
    },
    {
      "id": 59278,
      "content": "<|begin_of_box|>",
      "single_word": false,
      "lstrip": false,
      "rstrip": false,
      "normalized": false,
      "special": false
    },
    {
      "id": 59279,
      "content": "<|end_of_box|>",
      "single_word": false,
      "lstrip": false,
      "rstrip": false,
      "normalized": false,
      "special": false
    },
    {
      "id": 59280,
      "content": "<|image|>",
      "single_word": false,
      "lstrip": false,
      "rstrip": false,
      "normalized": false,
      "special": false
    },
    {
      "id": 59281,
      "content": "<|video|>",
      "single_word": false,
      "lstrip": false,
      "rstrip": false,
      "normalized": false,
      "special": false
    }
  ],
  "normalizer": null,
  "pre_tokenizer": {
    "type": "Sequence",
    "pretokenizers": [
      {
        "type": "Split",
        "pattern": {
          "Regex": "(?i:'s|'t|'re|'ve|'m|'ll|'d)|[^\\r\\n\\p{L}\\p{N}]?\\p{L}+|\\p{N}{1,3}| ?[^\\s\\p{L}\\p{N}]+[\\r\\n]*|\\s*[\\r\\n]+|\\s+(?!\\S)|\\s+"
        },
        "behavior": "Isolated",
        "invert": false
      },
      {
        "type": "ByteLevel",
        "add_prefix_space": false,
        "trim_offsets": true,
        "use_regex": false
      }
    ]
  },
  "post_processor": {
    "type": "Sequence",
    "processors": [
      {
        "type": "ByteLevel",
        "add_prefix_space": true,
        "trim_offsets": false,
        "use_regex": true
      }
    ]
  },
  "decoder": {
    "type": "ByteLevel",
    "add_prefix_space": true,
    "trim_offsets": true,
    "use_regex": true
  },
  "model": {
    "type": "BPE",
    "dropout": null,
    "unk_token": null,
    "continuing_subword_prefix": null,
    "end_of_word_suffix": null,
    "fuse_unk": false,
    "byte_fallback": false,
    "ignore_merges": true,
    "vocab": {
      "Ā": 0,
      "ā": 1,
      "Ă": 2,
      "ă": 3,
      "Ą": 4,
      "ą": 5,
      "Ć": 6,
      "ć": 7,
      "Ĉ": 8,
      "ĉ": 9,
      "Ċ": 10,
      "ċ": 11,
      "Č": 12,
      "č": 13,
      "Ď": 14,
      "ď": 15,
      "Đ": 16,
      "đ": 17,
      "Ē": 18,
      "ē": 19,
      "Ĕ": 20,
      "ĕ": 21,
      "Ė": 22,
      "ė": 23,
      "Ę": 24,
      "ę": 25,
      "Ě": 26,
      "ě": 27,
      "Ĝ": 28,
      "ĝ": 29,
      "Ğ": 30,
      "ğ": 31,
      "Ġ": 32,
      "!": 33,
      "\"": 34,
      "#": 35,
      "$": 36,
      "%": 37,
      "&": 38,
      "'": 39,
      "(": 40,
      ")": 41,
      "*": 42,
      "+": 43,
      ",": 44,
      "-": 45,
      ".": 46,
      "/": 47,
      "0": 48,
      "1": 49,
      "2": 50,
      "3": 51,
      "4": 52,
      "5": 53,
      "6": 54,
      "7": 55,
      "8": 56,
      "9": 57,
      ":": 58,
      ";": 59,
      "<": 60,
      "=": 61,
      ">": 62,
      "?": 63,
      "@": 64,
      "A": 65,
      "B": 66,
      "C": 67,
      "D": 68,
      "E": 69,
      "F": 70,
      "G": 71,
      "H": 72,
      "I": 73,
      "J": 74,
      "K": 75,
      "L": 76,
      "M": 77,
      "N": 78,
      "O": 79,
      "P": 80,
      "Q": 81,
      "R": 82,
      "S": 83,
      "T": 84,
      "U": 85,
      "V": 86,
      "W": 87,
      "X": 88,
      "Y": 89,
      "Z": 90,
      "[": 91,
      "\\": 92,
      "]": 93,
      "^": 94,
      "_": 95,
      "`": 96,
      "a": 97,
      "b": 98,
      "c": 99,
      "d": 100,
      "e": 101,
      "f": 102,
      "g": 103,
      "h": 104,
      "i": 105,
      "j": 106,
      "k": 107,
      "l": 108,
      "m": 109,
      "n": 110,
      "o": 111,
      "p": 112,
      "q": 113,
      "r": 114,
      "s": 115,
      "t": 116,
      "u": 117,
      "v": 118,
      "w": 119,
      "x": 120,
      "y": 121,
      "z": 122,
      "{": 123,
      "|": 124,
      "}": 125,
      "~": 126,
      "ġ": 127,
      "Ģ": 128,
      "ģ": 129,
      "Ĥ": 130,
      "ĥ": 131,
      "Ħ": 132,
      "ħ": 133,
      "Ĩ": 134,
      "ĩ": 135,
      "Ī": 136,
      "ī": 137,
      "Ĭ": 138,
      "ĭ": 139,
      "Į": 140,
      "į": 141,
      "İ": 142,
      "ı": 143,
      "Ĳ": 144,
      "ĳ": 145,
      "Ĵ": 146,
      "ĵ": 147,
      "Ķ": 148,
      "ķ": 149,
      "ĸ": 150,
      "Ĺ": 151,
      "ĺ": 152,
      "Ļ": 153,
      "ļ": 154,
      "Ľ": 155,
      "ľ": 156,
      "Ŀ": 157,
      "ŀ": 158,
      "Ł": 159,
      "ł": 160,
      "¡": 161,
      "¢": 162,
      "£": 163,
      "¤": 164,
      "¥": 165,
      "¦": 166,
      "§": 167,
      "¨": 168,
      "©": 169,
      "ª": 170,
      "«": 171,
      "¬": 172,
      "Ń": 173,
      "®": 174,
      "¯": 175,
      "°": 176,
      "±": 177,
      "²": 178,
      "³": 179,
      "´": 180,
      "µ": 181,
      "¶": 182,
      "·": 183,
      "¸": 184,
      "¹": 185,
      "º": 186,
      "»": 187,
      "¼": 188,
      "½": 189,
      "¾": 190,
      "¿": 191,
      "À": 192,
      "Á": 193,
      "Â": 194,
      "Ã": 195,
      "Ä": 196,
      "Å": 197,
      "Æ": 198,
      "Ç": 199,
      "È": 200,
      "É": 201,
      "Ê": 202,
      "Ë": 203,
      "Ì": 204,
      "Í": 205,
      "Î": 206,
      "Ï": 207,
      "Ð": 208,
      "Ñ": 209,
      "Ò": 210,
      "Ó": 211,
      "Ô": 212,
      "Õ": 213,
      "Ö": 214,
      "×": 215,
      "Ø": 216,
      "Ù": 217,
      "Ú": 218,
      "Û": 219,
      "Ü": 220,
      "Ý": 221,
      "Þ": 222,
      "ß": 223,
      "à": 224,
      "á": 225,
      "â": 226,
      "ã": 227,
      "ä": 228,
      "å": 229,
      "æ": 230,
      "ç": 231,
      "è": 232,
      "é": 233,
      "ê": 234,
      "ë": 235,
      "ì": 236,
      "í": 237,
      "î": 238,
      "ï": 239,
      "ð": 240,
      "ñ": 241,
      "ò": 242,
      "ó": 243,
      "ô": 244,
      "õ": 245,
      "ö": 246,
      "÷": 247,
      "ø": 248,
      "ù": 249,
      "ú": 250,
      "û": 251,
      "ü": 252,
      "ý": 253,
      "þ": 254,
      "ÿ": 255,
      "ĠĠ": 256,
      "ĠĠĠĠ": 257,
      "Ġt": 258,
      "in": 259,
      "er": 260,
      "Ġa": 261,
      "on": 262,
      "en": 263,
      "ä¸": 264,
      "re": 265,
      "he": 266,
      "Ġs": 267,
      "at": 268,
      "ĠÐ": 269,
      "or": 270,
      "es": 271,
      "Ġc": 272,
      "Ð¾": 273,
      "Ġd": 274,
      "an": 275,
      "Ġp": 276,
      "ï¼": 277,
      "it": 278,
      "çļ": 279,
      "ĠĠĠĠĠĠĠĠ": 280,
      "çļĦ": 281,
      "is": 282,
      "Ġthe": 283,
      "al": 284,
      "ar": 285,
      "Ðµ": 286,
      "Ð°": 287,
      "ãĢ": 288,
      "Ġo": 289,
      "le": 290,
      "Ġw": 291,
      "Ġf": 292,
      "äº": 293,
      "Ġm": 294,
      "ĠĠĠ": 295,
      "Ð¸": 296,
      "ou": 297,
      "Ġb": 298,
      "ÑĤ": 299,
      "ï¼Į": 300,
      "ic": 301,
      "ing": 302,
      "ion": 303,
      "ed": 304,
      "as": 305,
      "nd": 306,
      "Ð½": 307,
      "ro": 308,
      "Ġin": 309,
      "ent": 310,
      "åı": 311,
      "Ñģ": 312,
      "ÑĢ": 313,
      "æľ": 314,
      "ä»": 315,
      "el": 316,
      "Ð¾Ð": 317,
      "et": 318,
      "Ġn": 319,
      "Ġto": 320,
      "st": 321,
      "Ġl": 322,
      "åħ": 323,
      "âĢ": 324,
      "Ġof": 325,
      "ãĢĤ": 326,
      "Ġh": 327,
      "ct": 328,
      "om": 329,
      "å¤": 330,
      "il": 331,
      "Ġand": 332,
      "åĪ": 333,
      ".Ċ": 334,
      "Ġth": 335,
      "è¿": 336,
      "å®": 337,
      "ä½": 338,
      "Ġre": 339,
      "Ġe": 340,
      "am": 341,
      "id": 342,
      "åĲ": 343,
      "æĺ": 344,
      "åľ": 345,
      "ch": 346,
      "çĶ": 347,
      "im": 348,
      "ut": 349,
      "ur": 350,
      ";Ċ": 351,
      "ad": 352,
      "Ð»": 353,
      "ol": 354,
      "Ġg": 355,
      "Ġv": 356,
      "ç»": 357,
      "Ġu": 358,
      "ä¹": 359,
      "Ġde": 360,
      "æĪ": 361,
      "åĬ": 362,
      "ĠS": 363,
      "ig": 364,
      "ä¸Ģ": 365,
      "se": 366,
      "iv": 367,
      "ãģ": 368,
      "ot": 369,
      "åĽ": 370,
      "è¯": 371,
      "æĺ¯": 372,
      "æĸ": 373,
      "ĠĠĠĠĠĠĠ": 374,
      "ĠT": 375,
      "ce": 376,
      "Ġ=": 377,
      "ĊĊ": 378,
      "Ñĥ": 379,
      "Ðº": 380,
      "å°": 381,
      "ĠA": 382,
      "ĠĠĠĠĠĠĠĠĠĠĠĠĠĠĠĠ": 383,
      "Ġy": 384,
      "åŃ": 385,
      "Ġ(": 386,
      "ĠC": 387,
      "æĹ": 388,
      "ation": 389,
      "qu": 390,
      "ra": 391,
      "ĠI": 392,
      "ul": 393,
      "--": 394,
      "em": 395,
      "ãĢģ": 396,
      "os": 397,
      "Ġis": 398,
      "è®": 399,
      "ow": 400,
      "ä¼": 401,
      "å¹": 402,
      "od": 403,
      "if": 404,
      "est": 405,
      "åį": 406,
      "Ġst": 407,
      "ag": 408,
      "Ñı": 409,
      "æĿ": 410,
      "åľ¨": 411,
      "Ġfor": 412,
      "un": 413,
      "Ġcon": 414,
      "ä¸į": 415,
      "Ø§": 416,
      "æľī": 417,
      "Ð²": 418,
      "ers": 419,
      "ir": 420,
      "Ð¼": 421,
      "Ġ{": 422,
      "Ñĭ": 423,
      "Ġbe": 424,
      "Ġ\"": 425,
      "ay": 426,
      "äºº": 427,
      "æī": 428,
      "å¼": 429,
      "ab": 430,
      "éĩ": 431,
      "ter": 432,
      "ĠM": 433,
      "åº": 434,
      "ĠP": 435,
      "ate": 436,
      "th": 437,
      "äºĨ": 438,
      "Ġon": 439,
      "ly": 440,
      "å·": 441,
      "è¡": 442,
      "us": 443,
      "ĠÐ¿": 444,
      "ac": 445,
      "èĢ": 446,
      "ĉĉ": 447,
      "æķ": 448,
      "åĨ": 449,
      "ÑĮ": 450,
      "åĩ": 451,
      "ie": 452,
      "å¯": 453,
      "å¸": 454,
      "Ġyou": 455,
      "å¾": 456,
      "Ġpro": 457,
      "Ð´": 458,
      "pe": 459,
      "ä¸Ń": 460,
      "um": 461,
      "åĮ": 462,
      "ith": 463,
      "ist": 464,
      "éĢ": 465,
      "ä¸º": 466,
      "ÑģÑĤ": 467,
      "æĢ": 468,
      "Ġal": 469,
      "oc": 470,
      "Ã©": 471,
      "ĠB": 472,
      "çĽ": 473,
      "åĴ": 474,
      "ĠD": 475,
      "Ġthat": 476,
      "ort": 477,
      "ve": 478,
      "res": 479,
      "è§": 480,
      "ĥ½": 481,
      "Ġk": 482,
      "ver": 483,
      "ess": 484,
      "te": 485,
      "end": 486,
      "Ġan": 487,
      "Ġwh": 488,
      "æł": 489,
      "åĴĮ": 490,
      "and": 491,
      "ĠÐ²": 492,
      ",Ċ": 493,
      "Ġ{Ċ": 494,
      "ht": 495,
      "ç§": 496,
      ")Ċ": 497,
      ");Ċ": 498,
      "//": 499,
      "Ġas": 500,
      "op": 501,
      "Ñĩ": 502,
      "Ġr": 503,
      "Ġcom": 504,
      "çİ": 505,
      "å¤§": 506,
      "ãĤ": 507,
      "æĬ": 508,
      "pp": 509,
      "ri": 510,
      "ĠE": 511,
      "ĠÑģ": 512,
      "Ġ<": 513,
      "å±": 514,
      "Ġ}": 515,
      "å¥": 516,
      "Ġwith": 517,
      "ĠR": 518,
      "ä»¥": 519,
      "è´": 520,
      "ÐµÐ½": 521,
      "ä¸ª": 522,
      "ĠF": 523,
      "Ġit": 524,
      "èµ": 525,
      "æĶ": 526,
      "ĠL": 527,
      "å½": 528,
      "æŃ": 529,
      "å¿": 530,
      ">Ċ": 531,
      "ãĥ": 532,
      "ak": 533,
      "æ°": 534,
      "çī": 535,
      "Ġse": 536,
      "ass": 537,
      "æ³": 538,
      "åİ": 539,
      "éĹ": 540,
      "ĠÐ½": 541,
      "è¦": 542,
      "ĠØ": 543,
      "âĢľ": 544,
      "pt": 545,
      "è¿Ļ": 546,
      "Ġex": 547,
      "çĶŁ": 548,
      "ÑĢÐ°": 549,
      "âĢĻ": 550,
      "çĶ¨": 551,
      "æĪĳ": 552,
      "âĢĿ": 553,
      "ĠH": 554,
      "ere": 555,
      "ill": 556,
      "Ġor": 557,
      "è¦ģ": 558,
      "èĩ": 559,
      "ub": 560,
      "Ġ-": 561,
      "ment": 562,
      "ä¸Ĭ": 563,
      "=\"": 564,
      "æŀ": 565,
      "éĿ": 566,
      "éĻ": 567,
      "ant": 568,
      "ame": 569,
      "åŃ¦": 570,
      "ĠW": 571,
      "æĹ¶": 572,
      "ĠN": 573,
      "Ð¾Ð²": 574,
      "Ġen": 575,
      "Ġqu": 576,
      "Ð·": 577,
      "ĠĠĠĠĠĠĠĠĠĠĠ": 578,
      "á»": 579,
      "ÙĦ": 580,
      "ĠĠĠĠĠ": 581,
      "og": 582,
      "ĠG": 583,
      "art": 584,
      "ue": 585,
      "Ġne": 586,
      "ore": 587,
      "Ġle": 588,
      "pl": 589,
      "iz": 590,
      "çº": 591,
      "Ġ*": 592,
      "åĽ½": 593,
      "čĊ": 594,
      "rom": 595,
      "ction": 596,
      "ĠÐ¸": 597,
      "de": 598,
      "Ġare": 599,
      "åĳ": 600,
      "ity": 601,
      "æµ": 602,
      "å¯¹": 603,
      "ä¼ļ": 604,
      "ä¿": 605,
      "æ²": 606,
      "æİ": 607,
      "å¹´": 608,
      "Ġun": 609,
      "**": 610,
      "èĥ½": 611,
      "Ġj": 612,
      "ain": 613,
      "åı¯": 614,
      "Ñħ": 615,
      "ä½ľ": 616,
      "Ð¿": 617,
      "Ġhe": 618,
      "Ġch": 619,
      "åıĳ": 620,
      "age": 621,
      "ine": 622,
      "ĠÐ¾": 623,
      "çŃ": 624,
      "åĪ°": 625,
      "è¡Į": 626,
      "..": 627,
      "Ġcl": 628,
      "çĲ": 629,
      "åĩº": 630,
      "æĿ¥": 631,
      "ap": 632,
      "----": 633,
      "è¾": 634,
      "ĠÙ": 635,
      "Ġat": 636,
      "our": 637,
      "çľ": 638,
      "æĥ": 639,
      "ies": 640,
      "Ã¡": 641,
      "é¢": 642,
      "Ġthis": 643,
      "ive": 644,
      "æĪĲ": 645,
      "Ð¹": 646,
      "ld": 647,
      "Ġ'": 648,
      "äºİ": 649,
      "åľ°": 650,
      "port": 651,
      "Ġha": 652,
      "ia": 653,
      "con": 654,
      "æ¯": 655,
      "ial": 656,
      "ect": 657,
      "Ġla": 658,
      "ge": 659,
      "ure": 660,
      "Ð±": 661,
      "ĠÐº": 662,
      "æĮ": 663,
      "##": 664,
      "ĠO": 665,
      "ä¸ļ": 666,
      "åĪĨ": 667,
      "Ġtr": 668,
      "å¦": 669,
      "ÑĢÐµ": 670,
      "ost": 671,
      "tr": 672,
      "orm": 673,
      "ight": 674,
      "cl": 675,
      "æĸ¹": 676,
      "åŁ": 677,
      "ĠThe": 678,
      "ust": 679,
      "Ġfrom": 680,
      "ãĢĤĊ": 681,
      "ell": 682,
      "Ø±": 683,
      "all": 684,
      "æĦ": 685,
      "åĵ": 686,
      "ff": 687,
      "ç«": 688,
      "ud": 689,
      "ä»ĸ": 690,
      "ult": 691,
      "æĭ": 692,
      "per": 693,
      "åī": 694,
      "çĲĨ": 695,
      "ich": 696,
      "Ð³": 697,
      "ile": 698,
      "è½": 699,
      "ĠÐ´": 700,
      "able": 701,
      "å°±": 702,
      "Ġwe": 703,
      "ä¸ĭ": 704,
      "åĲİ": 705,
      "Ġnot": 706,
      "ä»¬": 707,
      "out": 708,
      "urn": 709,
      "å·¥": 710,
      "ok": 711,
      "èĩª": 712,
      "Ġsu": 713,
      "Ġby": 714,
      "åĬ¨": 715,
      "ÐµÑĤ": 716,
      "ex": 717,
      "èĤ": 718,
      "éĺ": 719,
      "Ð½Ð¸": 720,
      "int": 721,
      "ä¾": 722,
      "ÙĨ": 723,
      "Ã³": 724,
      "()": 725,
      "éģ": 726,
      "ç®": 727,
      "ans": 728,
      "æ³ķ": 729,
      "ire": 730,
      "å¤ļ": 731,
      "è¿ĩ": 732,
      "ard": 733,
      "ack": 734,
      "ä¹Ł": 735,
      "</": 736,
      "com": 737,
      "ind": 738,
      "Ð¾Ð»": 739,
      "ib": 740,
      "ä¹ĭ": 741,
      "ĠU": 742,
      "==": 743,
      "ip": 744,
      "Ġdo": 745,
      "rou": 746,
      "are": 747,
      "Ñİ": 748,
      "Ġcan": 749,
      "å®¶": 750,
      "å®ļ": 751,
      "æĢ§": 752,
      "ata": 753,
      "Ġim": 754,
      "åŃĲ": 755,
      "to": 756,
      "ä¸İ": 757,
      "çİ°": 758,
      "è¿Ľ": 759,
      "æ±": 760,
      "ord": 761,
      "Ð¾Ð¼": 762,
      "nt": 763,
      "ä½ĵ": 764,
      "Ġsh": 765,
      "ç¬": 766,
      "å®ŀ": 767,
      "æ´": 768,
      "ç»ı": 769,
      "èĢĮ": 770,
      "ice": 771,
      "ç¨": 772,
      "Ġ$": 773,
      "ik": 774,
      "Ġwas": 775,
      "ç½": 776,
      "é«": 777,
      "ĠĠĠĠĠĠĠĠĠĠĠĠĠĠĠĠĠĠĠĠĠĠĠĠĠĠĠĠĠĠĠĠ": 778,
      "Ġif": 779,
      "ï¼ļ": 780,
      "ng": 781,
      "åĮĸ": 782,
      "ÃŃ": 783,
      "Ð¾Ð´": 784,
      "Ð¾ÑĢ": 785,
      "Ð°ÑĤ": 786,
      "ĠJ": 787,
      "ĠV": 788,
      "Ġhave": 789,
      "ĠØ§": 790,
      "áº": 791,
      "éĥ": 792,
      "Ġyour": 793,
      "çĤ": 794,
      "lic": 795,
      "Ġz": 796,
      "Ð½Ñĭ": 797,
      "é«ĺ": 798,
      "ĠÐ¼": 799,
      "Ġab": 800,
      "ne": 801,
      "av": 802,
      "ÑĨ": 803,
      "Ð¸ÑĤ": 804,
      "éĿ¢": 805,
      "Ð½Ð¾": 806,
      "ĠÐ½Ð°": 807,
      "ast": 808,
      "turn": 809,
      "Ġpl": 810,
      "ase": 811,
      "ÑĪ": 812,
      "ĠÃ": 813,
      "æ¸": 814,
      "Ġus": 815,
      "åĲĮ": 816,
      "ĠÑĤ": 817,
      "åĬĽ": 818,
      "å¦Ĥ": 819,
      "åħ¶": 820,
      "éķ": 821,
      "æ¬": 822,
      "ide": 823,
      "ä¸»": 824,
      "sp": 825,
      "æľ¬": 826,
      "æı": 827,
      "Ġ[": 828,
      "cc": 829,
      "çŁ": 830,
      "ĠK": 831,
      "ç¤": 832,
      "act": 833,
      "ob": 834,
      "åģ": 835,
      "æīĢ": 836,
      "::": 837,
      "æĸĩ": 838,
      "ĠâĢ": 839,
      "çŃī": 840,
      "Ġad": 841,
      "ÐµÐ»": 842,
      "form": 843,
      "ould": 844,
      "ÛĮ": 845,
      "Ġcomp": 846,
      "ĠÎ": 847,
      "Ð¶": 848,
      "ens": 849,
      "ork": 850,
      "ĠĠĠĠĠĠĠĠĠĠĠĠĠĠĠ": 851,
      "ÙĬ": 852,
      "é¡": 853,
      "ach": 854,
      "ÐµÑĢ": 855,
      "æĽ": 856,
      "åĲĪ": 857,
      "è·": 858,
      "å¼Ģ": 859,
      "åħ¬": 860,
      "è°": 861,
      "Ð°Ð»": 862,
      "ru": 863,
      "å°ı": 864,
      "åĢ": 865,
      "çĿ": 866,
      "Ùħ": 867,
      "âĢĻs": 868,
      "ime": 869,
      "äº§": 870,
      "get": 871,
      "Ð¾Ð³": 872,
      "Ġall": 873,
      "å¾Ĺ": 874,
      "éĥ¨": 875,
      "ions": 876,
      "ype": 877,
      "one": 878,
      "Ġclass": 879,
      "ÙĪ": 880,
      "èĢħ": 881,
      "è¯´": 882,
      "åħ¨": 883,
      "Ã¤": 884,
      "ign": 885,
      "du": 886,
      "Ġpr": 887,
      "å¿ĥ": 888,
      "Ġwill": 889,
      "åº¦": 890,
      "Ġcont": 891,
      "ert": 892,
      "Øª": 893,
      "ĠIn": 894,
      "æķ°": 895,
      "ite": 896,
      "æį": 897,
      "æĸ°": 898,
      "Ġel": 899,
      "Ġme": 900,
      "å»": 901,
      "ï¼Ī": 902,
      "ace": 903,
      "ĠÐ¿ÑĢ": 904,
      "éĥ½": 905,
      "å¥½": 906,
      "\"Ċ": 907,
      "åħ³": 908,
      "\",": 909,
      "ï¼ī": 910,
      "ç§į": 911,
      "ç³": 912,
      "ont": 913,
      "Ġper": 914,
      "Ø¯": 915,
      "Ġdes": 916,
      "ode": 917,
      "åĿ": 918,
      "erv": 919,
      "ber": 920,
      "ated": 921,
      ":Ċ": 922,
      "éĽ": 923,
      "åĪ¶": 924,
      "ical": 925,
      "ang": 926,
      "ath": 927,
      "In": 928,
      "éĩį": 929,
      "Ġque": 930,
      "éĹ´": 931,
      "çĦ": 932,
      "åºĶ": 933,
      "ong": 934,
      "ance": 935,
      "æĹ¥": 936,
      "Ġund": 937,
      "ents": 938,
      "åīį": 939,
      "Ġpar": 940,
      "åĨħ": 941,
      "ous": 942,
      "Ã¼": 943,
      "äºĭ": 944,
      "éļ": 945,
      "æľº": 946,
      "ome": 947,
      "io": 948,
      "Ð¾ÑĤ": 949,
      "Ġ:": 950,
      "ĠTh": 951,
      "çĤ¹": 952,
      "éĩı": 953,
      "èī": 954,
      "ç©": 955,
      "ps": 956,
      "ail": 957,
      "éĢļ": 958,
      "åĬł": 959,
      "ck": 960,
      "ĠÐ±": 961,
      "éĤ": 962,
      "ence": 963,
      "æĻ": 964,
      "au": 965,
      "so": 966,
      "ç¾": 967,
      "è¶": 968,
      "fer": 969,
      "Ä±": 970,
      "ç¬¬": 971,
      "ä½ł": 972,
      "éķ¿": 973,
      "Ġar": 974,
      "ll": 975,
      "ov": 976,
      "}Ċ": 977,
      "Ġi": 978,
      "Ùĩ": 979,
      "å¸Ĥ": 980,
      "ä¸Ģä¸ª": 981,
      "ĠÐ·": 982,
      "åĽł": 983,
      "å¤©": 984,
      "æľĢ": 985,
      "Ġres": 986,
      "ary": 987,
      "å¢": 988,
      "è¡¨": 989,
      "ÑģÐº": 990,
      "Ð¾Ð¹": 991,
      "çł": 992,
      "Ġ}Ċ": 993,
      "èĬ": 994,
      "ject": 995,
      "ÐµÐ½Ð¸": 996,
      "xt": 997,
      "ations": 998,
      "err": 999,
      "çĿĢ": 1000,
      "çĽ¸": 1001,
      "ç¨ĭ": 1002,
      "ual": 1003,
      "Ð½Ð°": 1004,
      "éģĵ": 1005,
      "ress": 1006,
      "å§": 1007,
      "æŁ": 1008,
      "ç³»": 1009,
      "ild": 1010,
      "å»º": 1011,
      "çī©": 1012,
      "ition": 1013,
      "èģ": 1014,
      "Ġdis": 1015,
      "å½ĵ": 1016,
      "ft": 1017,
      "æıĲ": 1018,
      "é£": 1019,
      "å±ķ": 1020,
      "çĦ¶": 1021,
      ").": 1022,
      "Ġhas": 1023,
      "åıĬ": 1024,
      "elf": 1025,
      "The": 1026,
      "ther": 1027,
      "æķĻ": 1028,
      "ake": 1029,
      "è¿ĺ": 1030,
      "Ġ.": 1031,
      "pro": 1032,
      "che": 1033,
      "--------": 1034,
      "è®¾": 1035,
      "ear": 1036,
      "Î±": 1037,
      "ĠØ§ÙĦ": 1038,
      "åĮº": 1039,
      "li": 1040,
      "æĥħ": 1041,
      "ĠÑ": 1042,
      "div": 1043,
      "æ°´": 1044,
      "ook": 1045,
      "Ġgo": 1046,
      "çķ": 1047,
      "åĵģ": 1048,
      "æ¶": 1049,
      "),": 1050,
      "ring": 1051,
      "æģ": 1052,
      "èµĦ": 1053,
      "Ġ//": 1054,
      "ä¸ī": 1055,
      "Ġnew": 1056,
      "æĦı": 1057,
      "ä»İ": 1058,
      "Ġreturn": 1059,
      "ock": 1060,
      "ize": 1061,
      "ç®¡": 1062,
      "ey": 1063,
      "Ð»Ð¸": 1064,
      "ç±": 1065,
      "Ġout": 1066,
      "Ġ|": 1067,
      "æľŁ": 1068,
      "Ġman": 1069,
      "çĻ": 1070,
      "Ġte": 1071,
      "(\"": 1072,
      "enc": 1073,
      "çĹ": 1074,
      "ç´": 1075,
      "Ġso": 1076,
      "å¤ĸ": 1077,
      "å¼ı": 1078,
      "æĺİ": 1079,
      "æŀľ": 1080,
      "ĠÑĥ": 1081,
      "ä½į": 1082,
      "gh": 1083,
      "ä½¿": 1084,
      "çĽ®": 1085,
      "Ġ&": 1086,
      "Ġpre": 1087,
      "çľĭ": 1088,
      "åĬ¡": 1089,
      "éľ": 1090,
      "ÏĦ": 1091,
      "lo": 1092,
      "Ġ/": 1093,
      "çĶµ": 1094,
      "ount": 1095,
      "ph": 1096,
      "alue": 1097,
      "æĹł": 1098,
      "éħ": 1099,
      "èµ·": 1100,
      "Ñī": 1101,
      "èĥ": 1102,
      "ors": 1103,
      "****": 1104,
      "vel": 1105,
      "'s": 1106,
      "æ°ĳ": 1107,
      "ep": 1108,
      "Ġtheir": 1109,
      "ory": 1110,
      "å°Ĩ": 1111,
      "æľĪ": 1112,
      "æŃ¤": 1113,
      "}ĊĊ": 1114,
      "Ð°Ðº": 1115,
      "ç»ĵ": 1116,
      "éĩĮ": 1117,
      "ç¥": 1118,
      "ç¡": 1119,
      "Ġbut": 1120,
      "Î¿": 1121,
      "çĸ": 1122,
      "ÑģÑı": 1123,
      "æĪĸ": 1124,
      "ple": 1125,
      "å¹¶": 1126,
      "Ġmore": 1127,
      "ä»£": 1128,
      "ec": 1129,
      "Ġapp": 1130,
      "åħ¥": 1131,
      "åı¯ä»¥": 1132,
      "ç¼": 1133,
      "\">": 1134,
      "ĠSt": 1135,
      "ä¿¡": 1136,
      "å¹³": 1137,
      "ä½Ĩ": 1138,
      "é¢ĺ": 1139,
      "éĶ": 1140,
      "ä¿Ŀ": 1141,
      "ose": 1142,
      "Ġsp": 1143,
      "gr": 1144,
      "ÐµÐ¼": 1145,
      "ä¹Ī": 1146,
      "å¾Ī": 1147,
      "è®¡": 1148,
      "éĤ£": 1149,
      "Ġthey": 1150,
      "St": 1151,
      "èĭ": 1152,
      "æ²¡": 1153,
      "Ð°Ð½": 1154,
      "Ġem": 1155,
      "ci": 1156,
      "äºĽ": 1157,
      "Ġinter": 1158,
      "Ġ#": 1159,
      "Ġwhich": 1160,
      "åŁº": 1161,
      "put": 1162,
      "ĉĉĉĉ": 1163,
      "æ´»": 1164,
      "we": 1165,
      "ink": 1166,
      "Ġup": 1167,
      "Ã¶": 1168,
      "å¸¸": 1169,
      "Ġ+": 1170,
      "Ġpart": 1171,
      "æĶ¿": 1172,
      "Ġet": 1173,
      "æ¯Ķ": 1174,
      "æł·": 1175,
      "ĠĠĠĠĠĠĠĠĠ": 1176,
      "ĠÐ½Ðµ": 1177,
      "Ġno": 1178,
      "èĦ": 1179,
      "Î¹": 1180,
      "æ¡": 1181,
      "cri": 1182,
      "Ġest": 1183,
      "row": 1184,
      "ark": 1185,
      "æĪĳä»¬": 1186,
      "Ġget": 1187,
      "èĲ": 1188,
      "ry": 1189,
      "è¢": 1190,
      "Ãł": 1191,
      "æĽ´": 1192,
      "ä»¶": 1193,
      "Ġsa": 1194,
      "cre": 1195,
      "æ·": 1196,
      "ĠÄ": 1197,
      "ier": 1198,
      "ĠâĢľ": 1199,
      "ublic": 1200,
      "è§£": 1201,
      "éĹ®": 1202,
      "æŃ£": 1203,
      "äºĮ": 1204,
      "Ð¾Ð½": 1205,
      "å£": 1206,
      "çī¹": 1207,
      "æ¬¡": 1208,
      "own": 1209,
      "åĪ©": 1210,
      "ï¼Ľ": 1211,
      ".s": 1212,
      "ç²": 1213,
      "åİ»": 1214,
      "èį": 1215,
      "ĠY": 1216,
      "->": 1217,
      "ĠÑĩ": 1218,
      "çĪ": 1219,
      "__": 1220,
      "ung": 1221,
      "æĥ³": 1222,
      "åľº": 1223,
      "åĳĺ": 1224,
      "Ġev": 1225,
      "åĲį": 1226,
      "ew": 1227,
      "Ġcol": 1228,
      "Ġone": 1229,
      "ãĢĭ": 1230,
      "iel": 1231,
      "ÐºÐ°": 1232,
      "Ġwork": 1233,
      "ĠÐ³": 1234,
      "Ø³": 1235,
      "éª": 1236,
      "Ġes": 1237,
      "yst": 1238,
      "ER": 1239,
      "Ġdi": 1240,
      "Ġconst": 1241,
      "åıĺ": 1242,
      "ma": 1243,
      "ss": 1244,
      "Ð»Ð°": 1245,
      "ç»Ħ": 1246,
      "ĠâĢĵ": 1247,
      "import": 1248,
      "ç»Ł": 1249,
      "çĶ±": 1250,
      "ãĢĬ": 1251,
      "åŀ": 1252,
      "éĴ": 1253,
      "iew": 1254,
      "èĪ": 1255,
      "Ð¾Ð±": 1256,
      "å®ī": 1257,
      "lect": 1258,
      "æľ¯": 1259,
      "åķ": 1260,
      "pr": 1261,
      "par": 1262,
      "ull": 1263,
      "her": 1264,
      "der": 1265,
      "ick": 1266,
      "çŁ¥": 1267,
      "ient": 1268,
      "Ġ</": 1269,
      "æīĭ": 1270,
      "èº": 1271,
      "Ñĸ": 1272,
      "ree": 1273,
      "tt": 1274,
      "Ð¾Ñģ": 1275,
      "æį®": 1276,
      "çĥ": 1277,
      "ef": 1278,
      "çģ": 1279,
      "Ð¾Ð³Ð¾": 1280,
      "Ð²Ð°": 1281,
      "ĠCh": 1282,
      "åĽ¾": 1283,
      ";ĊĊ": 1284,
      "æİ¥": 1285,
      "ater": 1286,
      "pec": 1287,
      "Ġabout": 1288,
      "name": 1289,
      "éĩĳ": 1290,
      "ç¾İ": 1291,
      "åĲĳ": 1292,
      "ption": 1293,
      "====": 1294,
      "ç¤¾": 1295,
      "Ġpe": 1296,
      "Ġro": 1297,
      "ely": 1298,
      "å·¥ä½ľ": 1299,
      "_t": 1300,
      "Ġcomm": 1301,
      "Ġ@": 1302,
      "led": 1303,
      "å½¢": 1304,
      "ings": 1305,
      "ĠÙħ": 1306,
      "æłĩ": 1307,
      "æº": 1308,
      "åįģ": 1309,
      "ÑĨÐ¸": 1310,
      "ener": 1311,
      "('": 1312,
      "Ġdef": 1313,
      "ä¸¤": 1314,
      "ific": 1315,
      "ound": 1316,
      "åĲĦ": 1317,
      "åİŁ": 1318,
      "è´¨": 1319,
      "ery": 1320,
      "iss": 1321,
      "ext": 1322,
      "Ġdel": 1323,
      "pect": 1324,
      "eg": 1325,
      "è¢«": 1326,
      "Ø¨": 1327,
      "èº«": 1328,
      "ÑĢÑĥ": 1329,
      "IN": 1330,
      "ãĢĤĊĊ": 1331,
      "####": 1332,
      "åıª": 1333,
      "px": 1334,
      "ons": 1335,
      "ãģ®": 1336,
      "ï¼Ł": 1337,
      "Ġtime": 1338,
      "Ġalso": 1339,
      "unction": 1340,
      "ÑĤÐ¾": 1341,
      "Î½": 1342,
      "anc": 1343,
      "Ġint": 1344,
      "ç«ĭ": 1345,
      "Ġour": 1346,
      "arg": 1347,
      "èĩªå·": 1348,
      "åĸ": 1349,
      "ĠÑĢÐ°": 1350,
      "æĦŁ": 1351,
      "ON": 1352,
      "ys": 1353,
      "åįķ": 1354,
      "text": 1355,
      "erm": 1356,
      "ool": 1357,
      "cess": 1358,
      "é¦": 1359,
      "Îµ": 1360,
      "è§Ħ": 1361,
      "Ġob": 1362,
      "Ġag": 1363,
      "ç§ĳ": 1364,
      "ek": 1365,
      "ĠÄĳ": 1366,
      "Ġany": 1367,
      "ug": 1368,
      "ĠĊ": 1369,
      "ç¦": 1370,
      "ç±»": 1371,
      "ann": 1372,
      "åı¸": 1373,
      "Ġam": 1374,
      "ari": 1375,
      "åģļ": 1376,
      "å¼º": 1377,
      "und": 1378,
      "å¤Ħ": 1379,
      "Ð»Ñı": 1380,
      "ĠÂ": 1381,
      "ays": 1382,
      "èĩªå·±": 1383,
      "{Ċ": 1384,
      "è·¯": 1385,
      "æĮĩ": 1386,
      "Ð¸Ð¼": 1387,
      "Ġder": 1388,
      "ĠĠĠĠĠĠĠĠĠĠĠĠĠĠĠĠĠĠĠ": 1389,
      "æĬĢ": 1390,
      "Ġother": 1391,
      "Ġcre": 1392,
      "',": 1393,
      "æ®": 1394,
      "ise": 1395,
      "az": 1396,
      "Ġwho": 1397,
      "Ø©": 1398,
      "éĵ": 1399,
      ".com": 1400,
      "è¿Ľè¡Į": 1401,
      "åıĳå±ķ": 1402,
      "Ġover": 1403,
      "Ġtra": 1404,
      "low": 1405,
      "ystem": 1406,
      "ĠÐ°": 1407,
      "è£": 1408,
      "les": 1409,
      "rit": 1410,
      "éľĢ": 1411,
      "æĤ": 1412,
      "ade": 1413,
      "ĠÐ·Ð°": 1414,
      "Ġend": 1415,
      "æµģ": 1416,
      "up": 1417,
      "Ã³n": 1418,
      "æ±Ĥ": 1419,
      "åŀĭ": 1420,
      "Ġset": 1421,
      "://": 1422,
      "å·²": 1423,
      "Ġ=>": 1424,
      "åħĥ": 1425,
      "ange": 1426,
      "äº¤": 1427,
      "å¯¼": 1428,
      "uch": 1429,
      "çłĶ": 1430,
      "ates": 1431,
      "eth": 1432,
      "ç½ĳ": 1433,
      "-s": 1434,
      "ä¼ł": 1435,
      "ä»»": 1436,
      "æľį": 1437,
      "Ġacc": 1438,
      "Ġuse": 1439,
      "åı£": 1440,
      "Ġma": 1441,
      "åĽŀ": 1442,
      "æ»": 1443,
      "ement": 1444,
      "ike": 1445,
      "Ġph": 1446,
      "Ø¹": 1447,
      "è¥": 1448,
      "Ġass": 1449,
      "çº¿": 1450,
      "æ°Ķ": 1451,
      "æ²»": 1452,
      "Ð¾Ð¶": 1453,
      "Ġ}ĊĊ": 1454,
      "æķĪ": 1455,
      "èī²": 1456,
      "Ð¾ÑģÑĤ": 1457,
      "æ²¡æľī": 1458,
      "Ġwhen": 1459,
      "ç¤º": 1460,
      "?Ċ": 1461,
      "ĠIt": 1462,
      "ï¼ģ": 1463,
      "ä¸ŃåĽ½": 1464,
      "è°ĥ": 1465,
      "è¥¿": 1466,
      "è¿Ĳ": 1467,
      "Ð¾Ðº": 1468,
      "Ð¸Ð½": 1469,
      "but": 1470,
      "Ġcons": 1471,
      "ÐµÐ¹": 1472,
      "Ġpos": 1473,
      "ä¹¦": 1474,
      "ÑģÑĤÐ²": 1475,
      "Ġdie": 1476,
      "Ġthem": 1477,
      "ĠØ¨": 1478,
      "æ¨": 1479,
      ";čĊ": 1480,
      "Ġadd": 1481,
      "irst": 1482,
      "åħ·": 1483,
      "Ġsome": 1484,
      "oint": 1485,
      "å¸Ī": 1486,
      "Ġent": 1487,
      "éĢī": 1488,
      "ten": 1489,
      "Ġwere": 1490,
      "é»": 1491,
      "èĢģ": 1492,
      "æĶ¶": 1493,
      "Name": 1494,
      "ric": 1495,
      "Ġhis": 1496,
      "co": 1497,
      "âĢ¦": 1498,
      "Ġmay": 1499,
      "é©": 1500,
      "èĻ": 1501,
      ");ĊĊ": 1502,
      "mer": 1503,
      "åĪ«": 1504,
      "æĮģ": 1505,
      "Ġmy": 1506,
      "ÐºÐ¸": 1507,
      "_s": 1508,
      "è½¦": 1509,
      "Ġbu": 1510,
      "Ġyear": 1511,
      "åıĹ": 1512,
      "èĢĥ": 1513,
      "Ġthere": 1514,
      "é¡¹": 1515,
      "col": 1516,
      "Ã§": 1517,
      "vent": 1518,
      "ĠÐ»": 1519,
      "round": 1520,
      "åĻ": 1521,
      "eb": 1522,
      "oy": 1523,
      "Ġprov": 1524,
      "ian": 1525,
      "Ġits": 1526,
      "Ġneed": 1527,
      "è®¤": 1528,
      "Ð°ÑĢ": 1529,
      "ĠÐ¾ÑĤ": 1530,
      "eng": 1531,
      "Ġmod": 1532,
      "``": 1533,
      "ä¹ī": 1534,
      "ble": 1535,
      "Con": 1536,
      "å°ĳ": 1537,
      "çĬ": 1538,
      "Ġdata": 1539,
      "ä¼ģ": 1540,
      "pon": 1541,
      "ÑĦ": 1542,
      "Re": 1543,
      "è®º": 1544,
      "fig": 1545,
      "ish": 1546,
      "Ġreg": 1547,
      "ç»Ļ": 1548,
      "ä»·": 1549,
      "Ġthan": 1550,
      "åĪĽ": 1551,
      "ix": 1552,
      "éĹ®é¢ĺ": 1553,
      "Ġbeen": 1554,
      "oid": 1555,
      "inal": 1556,
      "åıĸ": 1557,
      "ĠPro": 1558,
      "æŀĦ": 1559,
      "tring": 1560,
      "çĽ´": 1561,
      "que": 1562,
      "æĢ»": 1563,
      "æł¼": 1564,
      "è®©": 1565,
      "Ġinst": 1566,
      "\">Ċ": 1567,
      "\":": 1568,
      "çĹħ": 1569,
      "Th": 1570,
      "è±": 1571,
      "wo": 1572,
      "éĹ¨": 1573,
      "Ġrequ": 1574,
      "RE": 1575,
      "pos": 1576,
      "æ£": 1577,
      "ãĢĢ": 1578,
      "å¥¹": 1579,
      "Ïĥ": 1580,
      "Ġpublic": 1581,
      "Ïģ": 1582,
      "Ð°ÑĤÑĮ": 1583,
      "ĠÑį": 1584,
      "tern": 1585,
      "å²": 1586,
      "Pro": 1587,
      "åħĪ": 1588,
      "Ġact": 1589,
      "ah": 1590,
      "å¢ŀ": 1591,
      "æĬĬ": 1592,
      "-b": 1593,
      "Ġ!": 1594,
      "ÅĤ": 1595,
      "èĤ²": 1596,
      "å½±": 1597,
      "èĮ": 1598,
      "æµ·": 1599,
      "åħ¬åı¸": 1600,
      "Ð°Ð¼": 1601,
      "éĻ¢": 1602,
      "ĠUn": 1603,
      "ado": 1604,
      "ä¸ľ": 1605,
      "ÑĤÐ¸": 1606,
      "Ġerr": 1607,
      "æĶ¾": 1608,
      "Ġdif": 1609,
      "è§ģ": 1610,
      "çľŁ": 1611,
      "ale": 1612,
      "è¾ĥ": 1613,
      "å¤´": 1614,
      "Ġfe": 1615,
      "èĩ³": 1616,
      "me": 1617,
      "ied": 1618,
      "ĠÙĪ": 1619,
      "line": 1620,
      "Ġche": 1621,
      "ST": 1622,
      "æĶ¹": 1623,
      "]Ċ": 1624,
      "èĬĤ": 1625,
      "é£İ": 1626,
      "ĉĉĉ": 1627,
      "åĽĽ": 1628,
      "ield": 1629,
      "olog": 1630,
      "ĠÑģÑĤ": 1631,
      "âĢĿĊ": 1632,
      "arch": 1633,
      "its": 1634,
      "Ġrec": 1635,
      "Ġinto": 1636,
      "åĪĻ": 1637,
      "å±±": 1638,
      "Ġwould": 1639,
      "åĻ¨": 1640,
      "å®Į": 1641,
      "Ġac": 1642,
      "ç¥ŀ": 1643,
      "ä¸ĵ": 1644,
      "ty": 1645,
      "æĿ¡": 1646,
      "éĽĨ": 1647,
      "ating": 1648,
      "ä¼ģä¸ļ": 1649,
      "ĠThis": 1650,
      "add": 1651,
      "Ġwhat": 1652,
      "atch": 1653,
      "ĠÐ¾Ð±": 1654,
      "åıĤ": 1655,
      "return": 1656,
      "æ¯ı": 1657,
      ".m": 1658,
      "Ġ\\": 1659,
      "let": 1660,
      "å®ĥ": 1661,
      "old": 1662,
      "Ġprodu": 1663,
      "sh": 1664,
      "AT": 1665,
      "Ġatt": 1666,
      "Ġra": 1667,
      "ove": 1668,
      "Ġincl": 1669,
      "Ġrel": 1670,
      "fo": 1671,
      "åķĨ": 1672,
      "Ġx": 1673,
      "å®¹": 1674,
      "be": 1675,
      "ä¸ĸ": 1676,
      "âĢĶ": 1677,
      "æģ¯": 1678,
      "Ġkn": 1679,
      "éĢł": 1680,
      "çº§": 1681,
      "ern": 1682,
      "ç¡®": 1683,
      "Ġaut": 1684,
      "\",Ċ": 1685,
      "æºĲ": 1686,
      "igh": 1687,
      "Ġoff": 1688,
      "Ġbl": 1689,
      "ator": 1690,
      "ç©¶": 1691,
      "åĢ¼": 1692,
      "Ġhow": 1693,
      "ople": 1694,
      "Ġbet": 1695,
      "Ġì": 1696,
      "ms": 1697,
      ")ĊĊ": 1698,
      "...": 1699,
      "Ġtrans": 1700,
      "Ġgr": 1701,
      "ĠRe": 1702,
      "åŃĺ": 1703,
      "Ġco": 1704,
      "Ã£": 1705,
      "erson": 1706,
      "EN": 1707,
      "Ð°Ð½Ð¸": 1708,
      "Ġnum": 1709,
      "ative": 1710,
      "ser": 1711,
      "è¯¥": 1712,
      "åŁİ": 1713,
      "è¾¾": 1714,
      "åĮ»": 1715,
      "èİ": 1716,
      "Ġunder": 1717,
      "span": 1718,
      "ien": 1719,
      "ÐµÐ´": 1720,
      "ments": 1721,
      "ç®¡çĲĨ": 1722,
      "Ġhad": 1723,
      "åħ±": 1724,
      "æĢĿ": 1725,
      "æķ´": 1726,
      "ÑĢÐµÐ´": 1727,
      "urr": 1728,
      "è®°": 1729,
      "ource": 1730,
      "å°±æĺ¯": 1731,
      "arn": 1732,
      "æ¨¡": 1733,
      "å¼ķ": 1734,
      "Ġlos": 1735,
      "htt": 1736,
      "åħī": 1737,
      "Ġstud": 1738,
      "ä¹ł": 1739,
      "app": 1740,
      "è§Ĥ": 1741,
      "Ġid": 1742,
      "();Ċ": 1743,
      "ices": 1744,
      "ude": 1745,
      "ible": 1746,
      "iÃ³n": 1747,
      "Ġself": 1748,
      "è¯ģ": 1749,
      "pport": 1750,
      "åįĹ": 1751,
      "Ġav": 1752,
      "Ġname": 1753,
      "åıį": 1754,
      "ä»Ģ": 1755,
      "cont": 1756,
      "è¯Ĩ": 1757,
      "ervice": 1758,
      "ities": 1759,
      "åıĪ": 1760,
      "ÐµÐ»ÑĮ": 1761,
      "æ³¨": 1762,
      "fter": 1763,
      "è½¬": 1764,
      "ĠÐ¿Ð¾": 1765,
      "ĠÃł": 1766,
      "éĿŀ": 1767,
      "ally": 1768,
      "ner": 1769,
      "âĢĻt": 1770,
      "Ġhel": 1771,
      "åĶ": 1772,
      "itt": 1773,
      "ause": 1774,
      "æīĵ": 1775,
      "ins": 1776,
      "ract": 1777,
      "Ġsub": 1778,
      "/Ċ": 1779,
      "æĸĻ": 1780,
      "æĬ¥": 1781,
      "ank": 1782,
      "ility": 1783,
      "Ð¾Ð»ÑĮ": 1784,
      "åĨį": 1785,
      "ml": 1786,
      ".ĊĊ": 1787,
      "çİ¯": 1788,
      "æ¼": 1789,
      "æīį": 1790,
      "åĩĨ": 1791,
      "uf": 1792,
      "æŃ¥": 1793,
      "ÏĢ": 1794,
      "ash": 1795,
      "å¥³": 1796,
      "ÑĩÐµ": 1797,
      "æĪĺ": 1798,
      "yn": 1799,
      "als": 1800,
      "ãĥ¼": 1801,
      "ĠZ": 1802,
      "Æ°": 1803,
      "ç¤¾ä¼ļ": 1804,
      "AR": 1805,
      "ä¸ĩ": 1806,
      "read": 1807,
      "çİĩ": 1808,
      "Ġlike": 1809,
      "ĠÃ©": 1810,
      "Ø§Ø": 1811,
      "æ¸ħ": 1812,
      "ues": 1813,
      "ĠCom": 1814,
      "è¯Ŀ": 1815,
      "æĿĥ": 1816,
      "åĦ": 1817,
      "Ġop": 1818,
      "Ġsur": 1819,
      "Ġser": 1820,
      "ular": 1821,
      "å¸¦": 1822,
      "ãģĦ": 1823,
      ".p": 1824,
      "Ġback": 1825,
      "æµİ": 1826,
      "è¨": 1827,
      "ox": 1828,
      "åŃĹ": 1829,
      "reat": 1830,
      "Ġinv": 1831,
      "Ġmed": 1832,
      "Ġonly": 1833,
      "ÙĤ": 1834,
      "çħ": 1835,
      "Ġpeople": 1836,
      "very": 1837,
      "Ð¾Ð·": 1838,
      "Ġdet": 1839,
      "å¤į": 1840,
      "Ġ`": 1841,
      "åĮħ": 1842,
      "Ġinform": 1843,
      "ĠÐĴ": 1844,
      "è¯Ń": 1845,
      "ç½®": 1846,
      "èģĶ": 1847,
      "ics": 1848,
      "å¤ĩ": 1849,
      "ww": 1850,
      "ĠÐµ": 1851,
      "ç©º": 1852,
      "åĬŁ": 1853,
      "Ġjust": 1854,
      "çłĶç©¶": 1855,
      "Â·": 1856,
      "ä»Ģä¹Ī": 1857,
      "ä½ķ": 1858,
      "æł¡": 1859,
      "Ġpol": 1860,
      "Ùģ": 1861,
      "ages": 1862,
      "ond": 1863,
      "ç´ł": 1864,
      "ault": 1865,
      "ts": 1866,
      "æĹ¶éĹ´": 1867,
      "Id": 1868,
      "ton": 1869,
      "Ġer": 1870,
      "Ãª": 1871,
      "data": 1872,
      "ĠÐŁ": 1873,
      "æĢģ": 1874,
      "----------------": 1875,
      "ren": 1876,
      "ÑĢÐ¸": 1877,
      "æŁ¥": 1878,
      "ym": 1879,
      "Ġ==": 1880,
      "ĠĠĠĠĠĠĠĠĠĠĠĠĠĠĠĠĠĠĠĠĠĠĠĠĠĠĠĠĠĠĠĠĠĠĠĠĠĠĠĠĠĠĠĠĠĠĠĠĠĠĠĠĠĠĠĠĠĠĠĠĠĠĠĠ": 1881,
      "åĮĹ": 1882,
      "ç²¾": 1883,
      "OR": 1884,
      "Ġmake": 1885,
      "æĶ¯": 1886,
      "èħ": 1887,
      "éªĮ": 1888,
      "ax": 1889,
      "********": 1890,
      "Ex": 1891,
      "ray": 1892,
      "Ġsol": 1893,
      "Ġshould": 1894,
      "ze": 1895,
      "ruct": 1896,
      "çķĮ": 1897,
      "åĨ³": 1898,
      "rough": 1899,
      "éĢļè¿ĩ": 1900,
      "Ġmin": 1901,
      "ä»ĸä»¬": 1902,
      "è§Ĩ": 1903,
      "çĻ½": 1904,
      "åį³": 1905,
      ".c": 1906,
      "ÏĤ": 1907,
      "roup": 1908,
      "Ġfirst": 1909,
      "Ġsc": 1910,
      "Ġfunction": 1911,
      "Ġher": 1912,
      "ä¾ĭ": 1913,
      "çĭ": 1914,
      "Ġthese": 1915,
      "aw": 1916,
      "this": 1917,
      "ider": 1918,
      "æł¹": 1919,
      "Type": 1920,
      "ÐµÐº": 1921,
      "Ġspec": 1922,
      "å¿ħ": 1923,
      "ĠWh": 1924,
      "éŁ": 1925,
      "ĠÐ¿ÑĢÐ¸": 1926,
      "Ġpara": 1927,
      "ref": 1928,
      "Î·": 1929,
      "val": 1930,
      "Ġ--": 1931,
      "Ġein": 1932,
      "ĠÐ²Ñĭ": 1933,
      "log": 1934,
      "ç®Ĺ": 1935,
      "Ġstat": 1936,
      "ures": 1937,
      "ä¾Ľ": 1938,
      "ful": 1939,
      "Ġeff": 1940,
      "Ġthen": 1941,
      "-t": 1942,
      "rr": 1943,
      "Ġpres": 1944,
      "Ġmost": 1945,
      "çİĭ": 1946,
      "gram": 1947,
      "ID": 1948,
      "dd": 1949,
      "å§ĭ": 1950,
      ".S": 1951,
      "åĦ¿": 1952,
      "Ġ_": 1953,
      "js": 1954,
      "Ïħ": 1955,
      "ÐµÐ½Ð¸Ñı": 1956,
      "Ġrem": 1957,
      "æ·±": 1958,
      "Ġstr": 1959,
      "velop": 1960,
      "gan": 1961,
      "ç»ıæµİ": 1962,
      "è¿Ļä¸ª": 1963,
      "Ġtest": 1964,
      "æľįåĬ¡": 1965,
      "æİ¨": 1966,
      "Ġval": 1967,
      "ãģ«": 1968,
      "ÄĻ": 1969,
      "td": 1970,
      "Ð¸Ð»": 1971,
      "ody": 1972,
      "ational": 1973,
      "set": 1974,
      "Ġresult": 1975,
      "min": 1976,
      "yp": 1977,
      "ader": 1978,
      "_f": 1979,
      "Ð°Ð²": 1980,
      "ä½¿çĶ¨": 1981,
      "alse": 1982,
      "any": 1983,
      "Com": 1984,
      "è¯ķ": 1985,
      "æĺ¾": 1986,
      "oun": 1987,
      "oth": 1988,
      "ocal": 1989,
      "ribut": 1990,
      "Ġ>": 1991,
      "Ú©": 1992,
      ".get": 1993,
      "ãģ§": 1994,
      "æ¢": 1995,
      "æĬĢæľ¯": 1996,
      "ĠÐ¡": 1997,
      "ict": 1998,
      "çª": 1999,
      "æĸ½": 2000,
      "è¡Ģ": 2001,
      "Ã£o": 2002,
      "Ch": 2003,
      "åĨµ": 2004,
      "Ġtype": 2005,
      "ĠWe": 2006,
      "åĨĽ": 2007,
      "å¹¿": 2008,
      "ces": 2009,
      "è¿ĳ": 2010,
      "æĪ·": 2011,
      "åı°": 2012,
      "ÅŁ": 2013,
      "Ġform": 2014,
      "))": 2015,
      "irect": 2016,
      "Ġimport": 2017,
      "Ġsaid": 2018,
      "ä½İ": 2019,
      "Ġles": 2020,
      "ĉif": 2021,
      "ç³»ç»Ł": 2022,
      "Äĥ": 2023,
      "aut": 2024,
      "ãģĹ": 2025,
      "å¦Ĥæŀľ": 2026,
      "æ¶Ī": 2027,
      "red": 2028,
      "chn": 2029,
      "è±¡": 2030,
      "Ġvalue": 2031,
      "Ð¼Ð¸": 2032,
      "é¢Ĩ": 2033,
      "äºĶ": 2034,
      "LE": 2035,
      "ĠĠĠĠĠĠ": 2036,
      "åĥ": 2037,
      "ĠAn": 2038,
      "éľĢè¦ģ": 2039,
      "åı·": 2040,
      "æĸŃ": 2041,
      "Ã¨": 2042,
      "els": 2043,
      "Ġlo": 2044,
      "èĲ¥": 2045,
      "Res": 2046,
      "Ġed": 2047,
      "ense": 2048,
      "urrent": 2049,
      "Ġthrough": 2050,
      "Ð¾Ð¿": 2051,
      "ased": 2052,
      "ĠHe": 2053,
      "essage": 2054,
      "è´¹": 2055,
      "æĺĵ": 2056,
      "Äħ": 2057,
      "wn": 2058,
      "æ®µ": 2059,
      "Ġlet": 2060,
      "ĉreturn": 2061,
      "å¢ĥ": 2062,
      "çĬ¶": 2063,
      "cript": 2064,
      "åĨľ": 2065,
      "work": 2066,
      "Ã¥": 2067,
      "go": 2068,
      "Ġhelp": 2069,
      "åĩł": 2070,
      "alth": 2071,
      "å¸ĥ": 2072,
      "åŃ¦çĶŁ": 2073,
      "Ð½ÑĭÑħ": 2074,
      "ower": 2075,
      "åĳ½": 2076,
      "Ø§ÙĨ": 2077,
      "att": 2078,
      "uc": 2079,
      "ument": 2080,
      "é¥": 2081,
      "ä»Ĭ": 2082,
      "aj": 2083,
      "ger": 2084,
      "æ¡Ī": 2085,
      "Ð¸ÑĤÑĮ": 2086,
      "éħį": 2087,
      "ä¼ĺ": 2088,
      "It": 2089,
      "Ġext": 2090,
      "def": 2091,
      "åĵį": 2092,
      "Ġver": 2093,
      "ä¸Ķ": 2094,
      "éļ¾": 2095,
      "Ġperson": 2096,
      "è£ħ": 2097,
      "ente": 2098,
      "éĻħ": 2099,
      "ache": 2100,
      "éĺ²": 2101,
      "Ġpor": 2102,
      "ç«ł": 2103,
      "å¼ł": 2104,
      "IT": 2105,
      "idth": 2106,
      "Ġtwo": 2107,
      "AN": 2108,
      ".t": 2109,
      "åĳ¨": 2110,
      "æµĭ": 2111,
      "ç»Ĩ": 2112,
      "Ġdu": 2113,
      "ĠAr": 2114,
      "æŀģ": 2115,
      "å¿«": 2116,
      "æĬ¤": 2117,
      "yle": 2118,
      "AL": 2119,
      "æĬķ": 2120,
      "ke": 2121,
      "è¨Ģ": 2122,
      "Ġknow": 2123,
      "Ġstring": 2124,
      "æİ§": 2125,
      "ethod": 2126,
      "ivers": 2127,
      "ij": 2128,
      "amp": 2129,
      "Ð½ÑĭÐµ": 2130,
      "ãģĻ": 2131,
      "unc": 2132,
      "!Ċ": 2133,
      "Ġind": 2134,
      "åĬŀ": 2135,
      "åħ»": 2136,
      "Ġsuch": 2137,
      "å¹²": 2138,
      "_m": 2139,
      "-m": 2140,
      "ler": 2141,
      "Ġwhere": 2142,
      "Ð°Ð»ÑĮ": 2143,
      "ä¸ŃçļĦ": 2144,
      "ough": 2145,
      "ĠĠĠĠĠĠĠĠĠĠĠĠĠĠĠĠĠĠĠĠĠĠĠ": 2146,
      "éĩĩ": 2147,
      "å±Ĥ": 2148,
      "ĠÂ«": 2149,
      "_p": 2150,
      "fore": 2151,
      "ÐµÑģ": 2152,
      "éĻĲ": 2153,
      "view": 2154,
      "Ġwor": 2155,
      "ood": 2156,
      "cent": 2157,
      "ada": 2158,
      "rol": 2159,
      "çĪ±": 2160,
      "ily": 2161,
      "SE": 2162,
      "Ð´Ð°": 2163,
      "åı¯èĥ½": 2164,
      "ait": 2165,
      "Ã©s": 2166,
      "Â»": 2167,
      "Ġden": 2168,
      "å±Ģ": 2169,
      "Ġexper": 2170,
      "ÑİÑĤ": 2171,
      "Ġda": 2172,
      "ĠAl": 2173,
      "Ġtrue": 2174,
      "ç§°": 2175,
      "Ø§ÙĦ": 2176,
      "å¤ª": 2177,
      "éĢŁ": 2178,
      "çľģ": 2179,
      "self": 2180,
      "Ġdiffer": 2181,
      "../": 2182,
      "ĠSe": 2183,
      "Ġsch": 2184,
      "ctions": 2185,
      "Ġsystem": 2186,
      "date": 2187,
      "Ġwell": 2188,
      "itle": 2189,
      "ÑģÑĤÐ¸": 2190,
      "-f": 2191,
      "of": 2192,
      "Ġ*/Ċ": 2193,
      "èĬ±": 2194,
      "è¶Ĭ": 2195,
      "ĠDe": 2196,
      "ĠÑĢÐµ": 2197,
      "ask": 2198,
      "ä¸»è¦ģ": 2199,
      "è®®": 2200,
      "Ġsim": 2201,
      "Ð½Ð¾Ð¹": 2202,
      "éĻ¤": 2203,
      "ĠĠĠĠĠĠĠĠĠĠĠĠĠ": 2204,
      "Ġstart": 2205,
      "ica": 2206,
      "urs": 2207,
      "Ġfol": 2208,
      "æĳ": 2209,
      "Ġused": 2210,
      "ĠQ": 2211,
      "Ùĥ": 2212,
      ".f": 2213,
      "åħļ": 2214,
      "iness": 2215,
      "èµ°": 2216,
      "ets": 2217,
      "ersion": 2218,
      "åĽ½å®¶": 2219,
      "ines": 2220,
      "æķĻèĤ²": 2221,
      "Ð¸Ñħ": 2222,
      "Ġsi": 2223,
      "Ġresp": 2224,
      "Ø´": 2225,
      "ãģ¦": 2226,
      "æĸ¹æ³ķ": 2227,
      "çīĩ": 2228,
      "Ġsm": 2229,
      "Ġbec": 2230,
      "çı": 2231,
      "ĠÐļ": 2232,
      "åŃ©": 2233,
      "åİĨ": 2234,
      "Ð½Ð¾Ð³Ð¾": 2235,
      "br": 2236,
      "ĠÐ¸Ð·": 2237,
      "List": 2238,
      "åĥı": 2239,
      "åİĭ": 2240,
      "Ġcor": 2241,
      "',Ċ": 2242,
      "æĿĳ": 2243,
      "ames": 2244,
      "Ã¼r": 2245,
      "åĽłä¸º": 2246,
      "ional": 2247,
      "ample": 2248,
      "Ġright": 2249,
      "æľª": 2250,
      "é£Ł": 2251,
      "ãĤĭ": 2252,
      "Ġmany": 2253,
      "éĺŁ": 2254,
      "Ġdon": 2255,
      "ven": 2256,
      "Ġelse": 2257,
      "åĢĻ": 2258,
      "Ġmon": 2259,
      "ØŃ": 2260,
      "Ġcar": 2261,
      "()Ċ": 2262,
      "den": 2263,
      "_c": 2264,
      "ä¿¡æģ¯": 2265,
      "ãĤĴ": 2266,
      "Ø§Ø±": 2267,
      "æ£Ģ": 2268,
      "ç§¯": 2269,
      "çļĦäºº": 2270,
      "uss": 2271,
      "èĩ´": 2272,
      "ÑĢÐ¾Ð²": 2273,
      "Ġdur": 2274,
      "Ġwant": 2275,
      "bl": 2276,
      "Å¼": 2277,
      "ãģ¨": 2278,
      "èģĮ": 2279,
      "cept": 2280,
      "Ġfil": 2281,
      "ature": 2282,
      "Ġdem": 2283,
      "ule": 2284,
      "========": 2285,
      "dex": 2286,
      "ave": 2287,
      "Ġil": 2288,
      "string": 2289,
      "çĸĹ": 2290,
      "Ġlong": 2291,
      "èį¯": 2292,
      "Ġdec": 2293,
      "Ġcould": 2294,
      "Data": 2295,
      "é©¬": 2296,
      "ç»´": 2297,
      "ä¾¿": 2298,
      "Ġsk": 2299,
      "æħ": 2300,
      "è§ī": 2301,
      "Ð³Ð¾": 2302,
      "ning": 2303,
      "const": 2304,
      "æ¸¸": 2305,
      "åĪĹ": 2306,
      "åı²": 2307,
      "Cont": 2308,
      "String": 2309,
      "ĠÑĦ": 2310,
      "ina": 2311,
      "Ġlist": 2312,
      "Ġ:=": 2313,
      "ä¸įæĺ¯": 2314,
      "ç¦»": 2315,
      "abel": 2316,
      "çĥŃ": 2317,
      "Ġgener": 2318,
      "ç»Ń": 2319,
      "åĭ": 2320,
      "ĠâĢĶ": 2321,
      "åĽ¢": 2322,
      "Ġuna": 2323,
      "è¾¹": 2324,
      "ows": 2325,
      "ĠØª": 2326,
      "ä¸įåĲĮ": 2327,
      "Wh": 2328,
      "èı": 2329,
      "Ġdist": 2330,
      "ife": 2331,
      "ĠÏĦ": 2332,
      "Ġinformation": 2333,
      "Ġevery": 2334,
      "ole": 2335,
      "Ð½ÑĭÐ¹": 2336,
      "ength": 2337,
      "hr": 2338,
      "åĳĬ": 2339,
      "ÑĤÑĮ": 2340,
      "åĬ©": 2341,
      "æķ°æį®": 2342,
      "ward": 2343,
      "Ġshe": 2344,
      "å¾·": 2345,
      "èĮĥ": 2346,
      "iá»": 2347,
      "æĥħåĨµ": 2348,
      "ious": 2349,
      "str": 2350,
      "ced": 2351,
      "Ġbus": 2352,
      "åħĭ": 2353,
      "Ġfind": 2354,
      "çĶŁæ´»": 2355,
      "Ġmet": 2356,
      "Ġdevelop": 2357,
      "åł": 2358,
      "Ġprocess": 2359,
      "æĮī": 2360,
      "key": 2361,
      "Î»": 2362,
      "æĪ¿": 2363,
      "ired": 2364,
      "Ġfl": 2365,
      "çħ§": 2366,
      "æ´»åĬ¨": 2367,
      "åŁŁ": 2368,
      "Ġap": 2369,
      "Ø²": 2370,
      "Ġ,": 2371,
      "Ã´": 2372,
      "lement": 2373,
      "ĠIf": 2374,
      "å®¢": 2375,
      "'t": 2376,
      "å£°": 2377,
      "å¤±": 2378,
      "ä¹Ĳ": 2379,
      "ç¢": 2380,
      "å¸Ĥåľº": 2381,
      "æĴ": 2382,
      "Ð¸Ñģ": 2383,
      "quest": 2384,
      "ting": 2385,
      ".d": 2386,
      "ux": 2387,
      "åĪĩ": 2388,
      "è¶³": 2389,
      "ute": 2390,
      "ï¼Įä½Ĩ": 2391,
      "ĠYou": 2392,
      "oci": 2393,
      "éļı": 2394,
      "æĸ¯": 2395,
      "ĠÐ¶": 2396,
      "Ġna": 2397,
      "ams": 2398,
      "å§Ķ": 2399,
      "_d": 2400,
      "è¯Ħ": 2401,
      "æŀĹ": 2402,
      "ç»ĩ": 2403,
      "éĢĤ": 2404,
      "åįİ": 2405,
      "åĪĴ": 2406,
      "è¿ŀ": 2407,
      "Ġread": 2408,
      "çº¦": 2409,
      "cond": 2410,
      "éĩįè¦ģ": 2411,
      "Ġway": 2412,
      "Ġtem": 2413,
      "è¯¾": 2414,
      "ÐµÐ½Ð¸Ðµ": 2415,
      "Ġlook": 2416,
      "åİ¿": 2417,
      "ï¼Įè¿Ļ": 2418,
      "ï¼Įåľ¨": 2419,
      "Ġsom": 2420,
      "-d": 2421,
      "Ġhand": 2422,
      "order": 2423,
      "ĠØ¯": 2424,
      "raph": 2425,
      ".l": 2426,
      "Ġafter": 2427,
      "air": 2428,
      "ãĥ³": 2429,
      "æļ": 2430,
      "Ġins": 2431,
      "gy": 2432,
      "rror": 2433,
      "Ġbel": 2434,
      "Ġnumber": 2435,
      "Ġcal": 2436,
      "ãģĮ": 2437,
      "ined": 2438,
      "Ġvis": 2439,
      "Ġsign": 2440,
      "ivate": 2441,
      "rop": 2442,
      "ify": 2443,
      "Ð¸Ðµ": 2444,
      "å±ŀ": 2445,
      "é¦ĸ": 2446,
      "æ¹": 2447,
      "ãģŁ": 2448,
      "åĿĩ": 2449,
      "new": 2450,
      "play": 2451,
      "çĮ": 2452,
      "å½±åĵį": 2453,
      "Ġinclud": 2454,
      "ãģ¯": 2455,
      "Ġcent": 2456,
      "To": 2457,
      "Ġvar": 2458,
      "Ġexp": 2459,
      "ccess": 2460,
      "Ġyears": 2461,
      "ism": 2462,
      "å¨": 2463,
      "Ġmark": 2464,
      "ãģª": 2465,
      "é¢Ħ": 2466,
      "æŀĲ": 2467,
      "nh": 2468,
      "Ġhigh": 2469,
      "ä¿®": 2470,
      "aking": 2471,
      "icht": 2472,
      "çľ¼": 2473,
      "ÑĥÐ´": 2474,
      "Ġfr": 2475,
      "çŃĸ": 2476,
      "çļĦä¸Ģ": 2477,
      "æİĴ": 2478,
      "Ġ%": 2479,
      "Ø¬": 2480,
      "ÐµÐ½ÑĤ": 2481,
      "Ã¡s": 2482,
      "ott": 2483,
      "åľŁ": 2484,
      "Æ°á»": 2485,
      "Ġprogram": 2486,
      "Îº": 2487,
      "åįĩ": 2488,
      "Ġve": 2489,
      "Ġeven": 2490,
      "ES": 2491,
      "Ġnh": 2492,
      "Ãº": 2493,
      "å·ŀ": 2494,
      "è®¸": 2495,
      "Ġart": 2496,
      "kt": 2497,
      "la": 2498,
      "ãģ¾": 2499,
      ".h": 2500,
      "æĸ¹éĿ¢": 2501,
      "Ġlas": 2502,
      "ited": 2503,
      "æ»¡": 2504,
      "çŁ³": 2505,
      "Ġmuch": 2506,
      "iver": 2507,
      "Ġmem": 2508,
      "åŃ¦ä¹ł": 2509,
      "Ġbecause": 2510,
      "è´£": 2511,
      "Ġprof": 2512,
      "ĠCon": 2513,
      "ween": 2514,
      "\")": 2515,
      "ĠÐĿ": 2516,
      "è¯·": 2517,
      "hor": 2518,
      "_b": 2519,
      "class": 2520,
      "ÐµÑĢÐµ": 2521,
      "ants": 2522,
      "å¡": 2523,
      "no": 2524,
      "ĠÑĩÑĤÐ¾": 2525,
      "çĻ¾": 2526,
      "åºľ": 2527,
      "åĨĻ": 2528,
      "èĳ": 2529,
      "other": 2530,
      "èİ·": 2531,
      "Î¼": 2532,
      "ustom": 2533,
      "Ð¸Ð·": 2534,
      "Ġvari": 2535,
      "Î¯": 2536,
      "Ġserv": 2537,
      "Ġë": 2538,
      "åĬ¿": 2539,
      "Ar": 2540,
      "ized": 2541,
      "bs": 2542,
      "ars": 2543,
      "äººçļĦ": 2544,
      "å¾Ģ": 2545,
      "éŁ³": 2546,
      "right": 2547,
      "CT": 2548,
      "org": 2549,
      "pre": 2550,
      "_l": 2551,
      "Ġreal": 2552,
      "Ġvery": 2553,
      "////": 2554,
      "ote": 2555,
      "Ġnow": 2556,
      "Ġgu": 2557,
      "Ġsee": 2558,
      "æĸĩåĮĸ": 2559,
      "ä¼Ĺ": 2560,
      "ives": 2561,
      "Ð¸Ð¹": 2562,
      "çĽĬ": 2563,
      "Ġdoes": 2564,
      "ìĿ": 2565,
      "https": 2566,
      "æ¥": 2567,
      "ender": 2568,
      "AS": 2569,
      "ÑĥÑİ": 2570,
      "åŃ©åŃĲ": 2571,
      "Ã¢": 2572,
      "çĲĥ": 2573,
      "net": 2574,
      "é¾": 2575,
      "item": 2576,
      "ital": 2577,
      "ai": 2578,
      "ÑģÑĤÑĮ": 2579,
      "Ġfile": 2580,
      "åºı": 2581,
      "><": 2582,
      "Ð°Ñģ": 2583,
      "fe": 2584,
      "æĹ¶åĢĻ": 2585,
      "è¯»": 2586,
      "rc": 2587,
      "ĠÐ´Ð»Ñı": 2588,
      "å£«": 2589,
      "åı¤": 2590,
      "Ġchar": 2591,
      "Ġ!=": 2592,
      "ä½ı": 2593,
      "ĠÐ¿Ð¾Ð´": 2594,
      "æ±Ł": 2595,
      "land": 2596,
      "æĭ©": 2597,
      "ĠÐ¿ÑĢÐ¾": 2598,
      "å°Ķ": 2599,
      "](": 2600,
      "RO": 2601,
      "ĠEx": 2602,
      "æīĢä»¥": 2603,
      "ï¼ĮèĢĮ": 2604,
      "è¿Ļæł·": 2605,
      "_C": 2606,
      "ĠÐľ": 2607,
      "Ġpass": 2608,
      "ential": 2609,
      "Ġfollow": 2610,
      "ution": 2611,
      "ç¾¤": 2612,
      "ÑĥÑĤ": 2613,
      "æķħ": 2614,
      "å·²ç»ı": 2615,
      "å¾ĭ": 2616,
      "Ġ&&": 2617,
      "Ġpartic": 2618,
      "Ġfin": 2619,
      "load": 2620,
      "IC": 2621,
      "'Ċ": 2622,
      "Ġsupport": 2623,
      "Ġcase": 2624,
      "Ġusing": 2625,
      "Ġeach": 2626,
      "ç»Ħç»ĩ": 2627,
      "éĻ©": 2628,
      "arget": 2629,
      "={": 2630,
      "></": 2631,
      "AM": 2632,
      "ĠTr": 2633,
      "å»ºè®¾": 2634,
      "Ġchild": 2635,
      "Ġ},Ċ": 2636,
      "ta": 2637,
      "Ġgood": 2638,
      "åĽ´": 2639,
      "-l": 2640,
      "hed": 2641,
      "Ġpo": 2642,
      "En": 2643,
      "ä»ħ": 2644,
      "åĲĮæĹ¶": 2645,
      "ĠÑĢÐ°Ð·": 2646,
      "Ġbest": 2647,
      "aciÃ³n": 2648,
      "Ð¡": 2649,
      "Ġbo": 2650,
      "è¶ħ": 2651,
      "ÐŁ": 2652,
      "áº¡": 2653,
      "value": 2654,
      "Ġpat": 2655,
      "_id": 2656,
      "Ġkey": 2657,
      "Ġke": 2658,
      "Ġdr": 2659,
      "Ġthose": 2660,
      "na": 2661,
      "ency": 2662,
      "Ġrun": 2663,
      "å®īåħ¨": 2664,
      "Ġaw": 2665,
      "æľĽ": 2666,
      "ÑĢÐ°Ð²": 2667,
      "rem": 2668,
      "vis": 2669,
      "ä¾Ŀ": 2670,
      "ene": 2671,
      "search": 2672,
      "çĶŁäº§": 2673,
      "åĪĿ": 2674,
      "roll": 2675,
      "Ġbetween": 2676,
      "è¦ģæ±Ĥ": 2677,
      "ĠLe": 2678,
      "è¿ĩç¨ĭ": 2679,
      "äº§åĵģ": 2680,
      "man": 2681,
      "Ġfalse": 2682,
      "dit": 2683,
      "${": 2684,
      "(Ċ": 2685,
      "Ġexpect": 2686,
      "äºī": 2687,
      "èĲ½": 2688,
      "use": 2689,
      "ĠAnd": 2690,
      "çº¢": 2691,
      "éĢīæĭ©": 2692,
      "for": 2693,
      "Ġfam": 2694,
      "áº¿": 2695,
      "fl": 2696,
      "ç¬¬ä¸Ģ": 2697,
      "ï¼Įä¸į": 2698,
      "opt": 2699,
      "è¿ĻäºĽ": 2700,
      "reg": 2701,
      "å·®": 2702,
      ",åľ¨": 2703,
      "Ġbefore": 2704,
      "é¡¹çĽ®": 2705,
      "èĭ±": 2706,
      "arm": 2707,
      "éĥ¨åĪĨ": 2708,
      "æĵ": 2709,
      "ÐµÑĤÑģÑı": 2710,
      "lex": 2711,
      "wh": 2712,
      ".b": 2713,
      "ï¼ļâĢľ": 2714,
      "æĸ¹å¼ı": 2715,
      "èĤ¡": 2716,
      "util": 2717,
      "stat": 2718,
      "ploy": 2719,
      "è¿ľ": 2720,
      "```": 2721,
      "ĠÑģÐ²": 2722,
      "odel": 2723,
      "èŀ": 2724,
      "ç¼ĸ": 2725,
      "ĠÐ±Ñĭ": 2726,
      "ÑģÐ¿": 2727,
      "ĠX": 2728,
      "Ġproduct": 2729,
      "ç®Ģ": 2730,
      "æ¸©": 2731,
      "Ġvoid": 2732,
      "inter": 2733,
      "cho": 2734,
      "Ð¾Ñĩ": 2735,
      "ç«Ļ": 2736,
      "æĲ": 2737,
      "Error": 2738,
      "Ġdown": 2739,
      "Ġown": 2740,
      "ually": 2741,
      "èĥ½åĬĽ": 2742,
      "ever": 2743,
      "ĠÙģ": 2744,
      "ÑĥÑĩ": 2745,
      "åįı": 2746,
      "Ġnon": 2747,
      "Ġcommun": 2748,
      "Ġbr": 2749,
      "comm": 2750,
      "over": 2751,
      "ÅĽ": 2752,
      "éĿĴ": 2753,
      "æ¼Ķ": 2754,
      "å¿Ĺ": 2755,
      "Col": 2756,
      "å¤Ł": 2757,
      "hip": 2758,
      "ique": 2759,
      "æĿĲ": 2760,
      "Ġquest": 2761,
      "Ð¸Ð²": 2762,
      "è®¾è®¡": 2763,
      "ä»¥åıĬ": 2764,
      "test": 2765,
      "è§Ĵ": 2766,
      "Ð°Ð·": 2767,
      "za": 2768,
      "åį´": 2769,
      "zy": 2770,
      "ĠFor": 2771,
      "alk": 2772,
      "ground": 2773,
      "ä½ľä¸º": 2774,
      "Ġpour": 2775,
      "opy": 2776,
      "erc": 2777,
      "Ġgl": 2778,
      "ÐºÐ¾": 2779,
      "ÄĽ": 2780,
      "Ġpost": 2781,
      "Ġpoint": 2782,
      "Ġmain": 2783,
      "Ġdifferent": 2784,
      "user": 2785,
      "url": 2786,
      "è¾ĵ": 2787,
      "Ġbeing": 2788,
      "uild": 2789,
      "DE": 2790,
      "Ġsin": 2791,
      "å¼Ģå§ĭ": 2792,
      "åĪĨæŀĲ": 2793,
      "var": 2794,
      "ÑģÐµ": 2795,
      "ç±³": 2796,
      "Ġ)": 2797,
      "ĠÐŀ": 2798,
      "Par": 2799,
      "çīĪ": 2800,
      "ically": 2801,
      "Ġposs": 2802,
      "ior": 2803,
      "ĠSch": 2804,
      "å¾®": 2805,
      "imes": 2806,
      "æıĲä¾Ľ": 2807,
      "gg": 2808,
      "ç»Ī": 2809,
      "Ġbusiness": 2810,
      "å½ķ": 2811,
      "Ġrep": 2812,
      "èīº": 2813,
      "Ġopt": 2814,
      "Ġtext": 2815,
      "Ġtechn": 2816,
      "æŃ»": 2817,
      "æĹı": 2818,
      "########": 2819,
      "Ġcare": 2820,
      "ology": 2821,
      "Ġincre": 2822,
      "Ġtake": 2823,
      "çĽĳ": 2824,
      "çĶ»": 2825,
      "Ġorgan": 2826,
      "Ġwhile": 2827,
      "Ðŀ": 2828,
      "éĻį": 2829,
      "æĻ¯": 2830,
      "Ġprovid": 2831,
      "||": 2832,
      "Ġca": 2833,
      "ÑħÐ¾Ð´": 2834,
      "åıĭ": 2835,
      "å¿µ": 2836,
      "].": 2837,
      "æĺ¯ä¸Ģ": 2838,
      "ui": 2839,
      "Ġmit": 2840,
      "ä½ľçĶ¨": 2841,
      "æĭī": 2842,
      "åĩºçİ°": 2843,
      "Ġbuild": 2844,
      "Ð½Ðµ": 2845,
      "Ġdep": 2846,
      "æł¸": 2847,
      "ush": 2848,
      "day": 2849,
      "å¯¹äºİ": 2850,
      "Ġcour": 2851,
      "čĊčĊ": 2852,
      "çİ¯å¢ĥ": 2853,
      "åħħ": 2854,
      "ÐºÑĥ": 2855,
      ",ä½Ĩ": 2856,
      "Ã±": 2857,
      "éĺ³": 2858,
      "ato": 2859,
      "html": 2860,
      "_P": 2861,
      "ĠAs": 2862,
      ").Ċ": 2863,
      "Ġfound": 2864,
      "ÑĩÐµÑģÐº": 2865,
      "åħ³ç³»": 2866,
      "Ġstate": 2867,
      "åħ¶ä»ĸ": 2868,
      "ÐĴ": 2869,
      "ÏĮ": 2870,
      "ï¼ĮæĪĳ": 2871,
      ",ä¸į": 2872,
      "Ġhtt": 2873,
      "rite": 2874,
      "ural": 2875,
      "è®²": 2876,
      "åĲ¬": 2877,
      "åŁ¹": 2878,
      "è¿°": 2879,
      "bo": 2880,
      "ĠNew": 2881,
      "Ġhealth": 2882,
      "ĠÑĤÐ°Ðº": 2883,
      "Ġje": 2884,
      "uro": 2885,
      "come": 2886,
      "code": 2887,
      "ization": 2888,
      "Ġnull": 2889,
      "åıĮ": 2890,
      "')": 2891,
      "Ġsame": 2892,
      "ä¸ĸçķĮ": 2893,
      "raw": 2894,
      "Un": 2895,
      "åģ¥": 2896,
      "ends": 2897,
      "Ġproble": 2898,
      "ÄŁ": 2899,
      "param": 2900,
      "Ġworld": 2901,
      "æī¿": 2902,
      "Ġzu": 2903,
      "ando": 2904,
      "åĪ°äºĨ": 2905,
      "Ġplay": 2906,
      "Ġoper": 2907,
      ",\"": 2908,
      "ION": 2909,
      "åĽŃ": 2910,
      "ä¸¥": 2911,
      "back": 2912,
      "gen": 2913,
      "idad": 2914,
      "AC": 2915,
      "Se": 2916,
      "ists": 2917,
      "word": 2918,
      "Ġnil": 2919,
      "çģ«": 2920,
      "ware": 2921,
      "æĶ¿åºľ": 2922,
      "Ð¸Ð´": 2923,
      "Ġfact": 2924,
      "iter": 2925,
      "face": 2926,
      "bject": 2927,
      "é»Ħ": 2928,
      "ases": 2929,
      "ateg": 2930,
      "the": 2931,
      "type": 2932,
      "åĩı": 2933,
      "ister": 2934,
      "Ġbre": 2935,
      "Ġdid": 2936,
      "mp": 2937,
      "æ¤": 2938,
      "Ø§Øª": 2939,
      "äº²": 2940,
      "èĪ¬": 2941,
      "Ġeffect": 2942,
      "ãĢĤåľ¨": 2943,
      "æĹ©": 2944,
      "ãĢĤâĢĿ": 2945,
      "å®¤": 2946,
      "ĠSh": 2947,
      "not": 2948,
      "Ġhref": 2949,
      "....": 2950,
      "ouse": 2951,
      "vir": 2952,
      "æĤ£": 2953,
      "ream": 2954,
      "èĩªå·±çļĦ": 2955,
      "ny": 2956,
      "çļĦæĺ¯": 2957,
      "by": 2958,
      "åº·": 2959,
      "lich": 2960,
      "Ġcle": 2961,
      "ante": 2962,
      "äº¬": 2963,
      "ĠÐ¿Ð¾Ð»": 2964,
      "ĠSp": 2965,
      "åĲ«": 2966,
      "Î¿Ïħ": 2967,
      "Ġthink": 2968,
      "oh": 2969,
      "å®Ŀ": 2970,
      "Ġtop": 2971,
      "Cl": 2972,
      "-c": 2973,
      "Ġson": 2974,
      "Ð°Ñı": 2975,
      "Ġcr": 2976,
      "ione": 2977,
      "å¼Ĥ": 2978,
      "è´Ł": 2979,
      "Î¬": 2980,
      "å¯Ĩ": 2981,
      "Ġmust": 2982,
      "(f": 2983,
      "Ġagain": 2984,
      "_S": 2985,
      "ĠÑĢ": 2986,
      "Get": 2987,
      "ane": 2988,
      "ocial": 2989,
      "æ²¹": 2990,
      ".g": 2991,
      "åĨħå®¹": 2992,
      "ĠÑı": 2993,
      "åħ·æľī": 2994,
      "è¿Ļç§į": 2995,
      "ved": 2996,
      "-p": 2997,
      "ici": 2998,
      "ÑīÐµ": 2999,
      "ĠÐł": 3000,
      "çİ°åľ¨": 3001,
      "ared": 3002,
      "Value": 3003,
      "Ġkh": 3004,
      "ember": 3005,
      "åĲĥ": 3006,
      "ĠRes": 3007,
      "uff": 3008,
      "lete": 3009,
      "äºĨä¸Ģ": 3010,
      "\")Ċ": 3011,
      "Ġcho": 3012,
      "lt": 3013,
      "Ġcontin": 3014,
      "isk": 3015,
      "å¤§çļĦ": 3016,
      "æ¿": 3017,
      "bers": 3018,
      "Ġdirect": 3019,
      "é¡»": 3020,
      "áº£": 3021,
      "ÃŃa": 3022,
      "Ġist": 3023,
      "æĿ¿": 3024,
      "IS": 3025,
      "ØĮ": 3026,
      "incl": 3027,
      "ĠĠĊ": 3028,
      "ception": 3029,
      "ÐµÐ·": 3030,
      "ĠPl": 3031,
      "^{": 3032,
      "Ġcurrent": 3033,
      "ght": 3034,
      "Ġmade": 3035,
      "eter": 3036,
      "Ð¶Ðµ": 3037,
      ".,": 3038,
      "ä»ĭ": 3039,
      "ï¼İ": 3040,
      "ä¸ĬçļĦ": 3041,
      "Ġexperi": 3042,
      "Ð½Ñı": 3043,
      "Ġhere": 3044,
      "ÑĤÐ°": 3045,
      "ä¸įèĥ½": 3046,
      "We": 3047,
      "åĩ»": 3048,
      "ĠÑħ": 3049,
      "ety": 3050,
      "äºĴ": 3051,
      "De": 3052,
      "è¿ĺæĺ¯": 3053,
      "Ġequ": 3054,
      "ness": 3055,
      "amb": 3056,
      "UL": 3057,
      "ava": 3058,
      "åĸĦ": 3059,
      "Ġdesign": 3060,
      "åĽłæŃ¤": 3061,
      "èŀį": 3062,
      "ather": 3063,
      "iven": 3064,
      "âĳ": 3065,
      "Ġvon": 3066,
      "ä»¤": 3067,
      "ĠÐĲ": 3068,
      "æł¹æį®": 3069,
      "æĪĲä¸º": 3070,
      "åıĳçĶŁ": 3071,
      "ett": 3072,
      "ron": 3073,
      ">ĊĊ": 3074,
      "Ġlocal": 3075,
      "ified": 3076,
      "Ġdas": 3077,
      "cription": 3078,
      "åħŃ": 3079,
      "lease": 3080,
      "Ġlog": 3081,
      "ident": 3082,
      "éĶĢ": 3083,
      "stand": 3084,
      "åºķ": 3085,
      "ĠEn": 3086,
      "è½»": 3087,
      "Ġboth": 3088,
      "ET": 3089,
      "son": 3090,
      "AP": 3091,
      "Ġrest": 3092,
      "åĲ¦": 3093,
      "ĠÐºÐ°Ðº": 3094,
      "ĠÐĶ": 3095,
      "ĠØ¹": 3096,
      "æıĲé«ĺ": 3097,
      "ico": 3098,
      "ocument": 3099,
      "ç»ľ": 3100,
      "Ġref": 3101,
      "Ġlast": 3102,
      "Ø§ÛĮ": 3103,
      "è´¢": 3104,
      "Ġday": 3105,
      "perty": 3106,
      "\");Ċ": 3107,
      "Tr": 3108,
      "æŁĲ": 3109,
      "Ġcap": 3110,
      "leg": 3111,
      "Øµ": 3112,
      "(s": 3113,
      "æ²³": 3114,
      "Ġprote": 3115,
      "éĥ½æĺ¯": 3116,
      "æ¬¾": 3117,
      "æĭ¬": 3118,
      "_{": 3119,
      "Ġreport": 3120,
      "';Ċ": 3121,
      "ä¸Ģå®ļ": 3122,
      "Ġlife": 3123,
      "...Ċ": 3124,
      "index": 3125,
      "Ġcall": 3126,
      "lection": 3127,
      "try": 3128,
      "Ðļ": 3129,
      "Ġsit": 3130,
      "ird": 3131,
      "Ð»ÑĮ": 3132,
      "çŁ¥éģĵ": 3133,
      "med": 3134,
      "å±ħ": 3135,
      "æį¢": 3136,
      "Ġproject": 3137,
      "Ġuser": 3138,
      "Ø³Øª": 3139,
      "ÐµÐ²": 3140,
      "por": 3141,
      "Ð¸Ñı": 3142,
      "æ¦": 3143,
      "ç¿": 3144,
      "ences": 3145,
      "Ġdev": 3146,
      "Ġplace": 3147,
      "je": 3148,
      "men": 3149,
      "],": 3150,
      "ä¹Łæĺ¯": 3151,
      "Ġconf": 3152,
      "ç»ĵæŀĦ": 3153,
      "åĤ": 3154,
      "ats": 3155,
      "UT": 3156,
      "éĿ©": 3157,
      "ason": 3158,
      "This": 3159,
      "uy": 3160,
      "ÑĭÐµ": 3161,
      "Ġarg": 3162,
      "ĠÐºÐ¾ÑĤ": 3163,
      "chen": 3164,
      "åħ´": 3165,
      "å®ŀçİ°": 3166,
      "AD": 3167,
      "çĨ": 3168,
      "ĠĠĠĠĊ": 3169,
      "æī¾": 3170,
      "Ġexpl": 3171,
      "He": 3172,
      "ĠÙĦ": 3173,
      "æĻ®": 3174,
      "Ġshow": 3175,
      "Ø·": 3176,
      "Ġfinal": 3177,
      "å¾Īå¤ļ": 3178,
      "Ġvol": 3179,
      "äººåĳĺ": 3180,
      "Ġhim": 3181,
      "ral": 3182,
      "Ġmethod": 3183,
      "äººæ°ĳ": 3184,
      "Ġterm": 3185,
      "ains": 3186,
      "çªģ": 3187,
      "æ¿Ģ": 3188,
      "Ġlearn": 3189,
      "å°½": 3190,
      "å®ĺ": 3191,
      "Ġline": 3192,
      "ross": 3193,
      "å¤§åŃ¦": 3194,
      "åįĬ": 3195,
      "era": 3196,
      "ission": 3197,
      "ka": 3198,
      "/s": 3199,
      ".A": 3200,
      "æīĢæľī": 3201,
      "ĠBut": 3202,
      "Ġimportant": 3203,
      "çĶ·": 3204,
      "Ġâ": 3205,
      "Ġ?": 3206,
      "Key": 3207,
      "åŃĺåľ¨": 3208,
      "Ġimp": 3209,
      "çķ¥": 3210,
      "ç§»": 3211,
      "å¥½çļĦ": 3212,
      "æĢİ": 3213,
      ",âĢĿ": 3214,
      "è¯į": 3215,
      "èĨ": 3216,
      "å©": 3217,
      "ãĤ¹": 3218,
      "ä»½": 3219,
      "ç¡Ģ": 3220,
      "ste": 3221,
      "ĠÚ©": 3222,
      "ros": 3223,
      "å¯Į": 3224,
      "ĠBe": 3225,
      "UR": 3226,
      "ï¼Įå¹¶": 3227,
      "çĽ¸åħ³": 3228,
      "ĠCl": 3229,
      "Ø®": 3230,
      "Ð¼Ð°": 3231,
      "less": 3232,
      "åŁºç¡Ģ": 3233,
      "åħį": 3234,
      "rag": 3235,
      "Ġge": 3236,
      "æĺŁ": 3237,
      "ponse": 3238,
      "ÐºÐ¾Ð²": 3239,
      "æŃ¢": 3240,
      "til": 3241,
      "Ġprivate": 3242,
      "ager": 3243,
      "ÐĲ": 3244,
      "çķĻ": 3245,
      "ĠÑģÐ»": 3246,
      "Ð½Ð°Ñı": 3247,
      "Ġlevel": 3248,
      "äºĳ": 3249,
      "ĠÐ¢": 3250,
      "ÐµÑĩ": 3251,
      "Ġsal": 3252,
      "å¾ģ": 3253,
      "æİ§åĪ¶": 3254,
      "ÐĿ": 3255,
      "æ¯į": 3256,
      "Ġqual": 3257,
      "akes": 3258,
      "Ġerror": 3259,
      "Ġauf": 3260,
      "ca": 3261,
      "á»Ļ": 3262,
      "æī§": 3263,
      "ament": 3264,
      "Ġlead": 3265,
      "ãĥ¼ãĥ": 3266,
      "é¸": 3267,
      "åĸľ": 3268,
      "ĠÑģÐ¿": 3269,
      "Ġtry": 3270,
      "umn": 3271,
      "Ġhome": 3272,
      "Ġcolor": 3273,
      "Ġleg": 3274,
      "Ġapplic": 3275,
      "ÑĨÐ¸Ð¸": 3276,
      "ĠFr": 3277,
      "ining": 3278,
      "aterial": 3279,
      "Ġ\\Ċ": 3280,
      "Ġiss": 3281,
      ",æĪĳ": 3282,
      "Ġmat": 3283,
      "(t": 3284,
      "Ġinvest": 3285,
      "Ġum": 3286,
      "åŁºæľ¬": 3287,
      "Ġstruct": 3288,
      "æĿİ": 3289,
      "ï¼Įä»ĸ": 3290,
      "åıĳçİ°": 3291,
      "ession": 3292,
      "çĶ±äºİ": 3293,
      "èī¯": 3294,
      "Ð¸Ð¸": 3295,
      "è®¤ä¸º": 3296,
      "Ġvan": 3297,
      "éĢģ": 3298,
      "å®³": 3299,
      ":\"": 3300,
      "Ġcreate": 3301,
      "çĭ¬": 3302,
      "duct": 3303,
      "itor": 3304,
      "ĠdÃ©": 3305,
      "ä¸ĢäºĽ": 3306,
      "ç«¯": 3307,
      "ä¸´": 3308,
      "ailable": 3309,
      "ĠĠĠĠĠĠĠĠĠĠĠĠĠĠĠĠĠĠĠĠĠĠĠĠĠĠĠ": 3310,
      "_T": 3311,
      "Ãªn": 3312,
      "By": 3313,
      "ĠÐ¿ÑĢÐµÐ´": 3314,
      "ÑĬ": 3315,
      "Ã¶r": 3316,
      "Ð°Ð¹": 3317,
      "ĠOn": 3318,
      "enn": 3319,
      "().": 3320,
      "lar": 3321,
      ");": 3322,
      "ks": 3323,
      "Ġcost": 3324,
      "åı¦": 3325,
      "ç»ĵæŀľ": 3326,
      "çļ®": 3327,
      "color": 3328,
      "çŃĶ": 3329,
      "Ġ->": 3330,
      "ä¸Ńå¿ĥ": 3331,
      "mit": 3332,
      "åĬŁèĥ½": 3333,
      "ving": 3334,
      "Item": 3335,
      "['": 3336,
      "å¤ĦçĲĨ": 3337,
      ".\"": 3338,
      "Ġfa": 3339,
      "åĪ»": 3340,
      "æ¯Ķè¾ĥ": 3341,
      "iving": 3342,
      "viron": 3343,
      "ä¸¾": 3344,
      "www": 3345,
      "export": 3346,
      "argin": 3347,
      "empl": 3348,
      "ido": 3349,
      "Ġben": 3350,
      "èµĽ": 3351,
      "Ġwrit": 3352,
      "Ġorder": 3353,
      "èµĦæºĲ": 3354,
      "è½½": 3355,
      "ĠÐ¸Ð½": 3356,
      "åĮħæĭ¬": 3357,
      "çıŃ": 3358,
      "ĠTe": 3359,
      "Ġopen": 3360,
      "ÑıÑĤ": 3361,
      ",èĢĮ": 3362,
      "file": 3363,
      "çł´": 3364,
      "Ġactiv": 3365,
      "++": 3366,
      "http": 3367,
      "åį°": 3368,
      "UN": 3369,
      "ves": 3370,
      "åĿļ": 3371,
      "ä¹ĭéĹ´": 3372,
      "),Ċ": 3373,
      "Ġpay": 3374,
      "è®Ń": 3375,
      "åĲ¸": 3376,
      "ç¬¬äºĮ": 3377,
      "Ġpop": 3378,
      "áº¥": 3379,
      "):": 3380,
      "ypes": 3381,
      "åħ«": 3382,
      "Ġsize": 3383,
      "ÅĻ": 3384,
      "Ġconsider": 3385,
      "bre": 3386,
      "Ġgreat": 3387,
      "Ġpot": 3388,
      "une": 3389,
      "Ġcert": 3390,
      "å¯Ł": 3391,
      "**Ċ": 3392,
      "Ġgover": 3393,
      "OT": 3394,
      "ç½ĳç»ľ": 3395,
      "ium": 3396,
      "Ã¡n": 3397,
      "ha": 3398,
      "ability": 3399,
      "Im": 3400,
      "ç¾İåĽ½": 3401,
      "ĠfÃ¼r": 3402,
      "Ġide": 3403,
      "è¿Ļä¸Ģ": 3404,
      "Ġcu": 3405,
      "Ã§Ã£o": 3406,
      "nect": 3407,
      "Ã©r": 3408,
      "Ġrece": 3409,
      ".C": 3410,
      "Ú¯": 3411,
      "As": 3412,
      "cur": 3413,
      "à¦": 3414,
      "ĠAd": 3415,
      "æłĩåĩĨ": 3416,
      "iment": 3417,
      "arly": 3418,
      "ED": 3419,
      "æĿ¥çļĦ": 3420,
      "bar": 3421,
      "State": 3422,
      "ä¸ĢèĪ¬": 3423,
      "include": 3424,
      "Ġpresent": 3425,
      "æĪĸèĢħ": 3426,
      "éķĩ": 3427,
      "Ġeas": 3428,
      "']": 3429,
      "Ġpub": 3430,
      "ĠString": 3431,
      "ĠInd": 3432,
      "ĠHow": 3433,
      "Ġdefault": 3434,
      "Ġsl": 3435,
      "Äĩ": 3436,
      "äºļ": 3437,
      "Ġpas": 3438,
      "ä¸ĵä¸ļ": 3439,
      "****************": 3440,
      "Ġmarket": 3441,
      "èĹ": 3442,
      "conom": 3443,
      "åĬ³": 3444,
      "Ġwithout": 3445,
      "çºª": 3446,
      "åį«": 3447,
      "Ġce": 3448,
      "ĠCol": 3449,
      "For": 3450,
      "ithub": 3451,
      "iversity": 3452,
      "ÑĢÐ¾": 3453,
      "Ġvo": 3454,
      "af": 3455,
      "äº§ä¸ļ": 3456,
      "Ġune": 3457,
      "View": 3458,
      "ĠÐ¼Ð¾Ð¶": 3459,
      "ients": 3460,
      "ä¼¤": 3461,
      "lis": 3462,
      "Ġanal": 3463,
      "Ġdisc": 3464,
      "ĠAmer": 3465,
      "ĠPh": 3466,
      "Ġhab": 3467,
      "Ġduring": 3468,
      "æ¬¢": 3469,
      "icle": 3470,
      "ĠÏĢ": 3471,
      "Ġappro": 3472,
      "é¼": 3473,
      "ÑĢÑĭ": 3474,
      "å·¥ç¨ĭ": 3475,
      "Ġadv": 3476,
      "cul": 3477,
      "unt": 3478,
      "input": 3479,
      "ino": 3480,
      "éĿŀå¸¸": 3481,
      "po": 3482,
      "Ġmov": 3483,
      "çŁ¥è¯Ĩ": 3484,
      "ĠØ£": 3485,
      "func": 3486,
      "ä¹°": 3487,
      "ÑĪÐµ": 3488,
      "Ġtri": 3489,
      "Ġstand": 3490,
      "åºĶçĶ¨": 3491,
      "Ġgrow": 3492,
      "è¡¥": 3493,
      "ĠØ³": 3494,
      "æĬķèµĦ": 3495,
      "åĳ¢": 3496,
      "ĠÐĺ": 3497,
      "å¿ħé¡»": 3498,
      "éĺ¶": 3499,
      "æĵį": 3500,
      "action": 3501,
      "ãĤĬ": 3502,
      "Ġmen": 3503,
      "ãģĭ": 3504,
      "Ġlim": 3505,
      "oot": 3506,
      "âĢĿï¼Į": 3507,
      "æĻº": 3508,
      "Ġresearch": 3509,
      "Ġstill": 3510,
      "Ġcheck": 3511,
      "Ġcome": 3512,
      "ĠÑĨ": 3513,
      "Ġhist": 3514,
      "config": 3515,
      "é»ĳ": 3516,
      "ä¸ºäºĨ": 3517,
      "Ġobject": 3518,
      "aster": 3519,
      "Ġweek": 3520,
      "Ġhum": 3521,
      "ç¦ı": 3522,
      "Object": 3523,
      "ĠÐºÐ¾ÑĤÐ¾ÑĢ": 3524,
      "Ð¸Ðº": 3525,
      "ÑĤÐµ": 3526,
      "Ġret": 3527,
      "é²": 3528,
      "iqu": 3529,
      "éĶĻ": 3530,
      "Ġaround": 3531,
      "Å¾": 3532,
      "OM": 3533,
      "Ġlaw": 3534,
      "Ġcontent": 3535,
      "Ġschool": 3536,
      ".âĢĿĊ": 3537,
      "ways": 3538,
      "åĳ³": 3539,
      "Ġbook": 3540,
      "ÃŁ": 3541,
      "Ġfield": 3542,
      "ĠÙĩ": 3543,
      "umber": 3544,
      "å¾ħ": 3545,
      "æĬĹ": 3546,
      "æ³¢": 3547,
      "ä¼¼": 3548,
      "Ø§Ùħ": 3549,
      "å®¡": 3550,
      "åŁİå¸Ĥ": 3551,
      "Ġcustom": 3552,
      "Ġword": 3553,
      "Ġsmall": 3554,
      "error": 3555,
      "Ġng": 3556,
      "iet": 3557,
      "-w": 3558,
      "ails": 3559,
      "ï¼Įä¹Ł": 3560,
      "åįł": 3561,
      "æķĻåŃ¦": 3562,
      "icense": 3563,
      "Ġperform": 3564,
      "Ġenc": 3565,
      "åįĥ": 3566,
      "zen": 3567,
      "Ġwater": 3568,
      "ç§ĳåŃ¦": 3569,
      "inc": 3570,
      "ination": 3571,
      "ference": 3572,
      "ÐµÑģÑĤ": 3573,
      "Ġloc": 3574,
      "Ġ///": 3575,
      "Ġcoun": 3576,
      "vert": 3577,
      "é¾Ļ": 3578,
      "ki": 3579,
      "Ġthree": 3580,
      "ĠÙĨ": 3581,
      "Ã½": 3582,
      "âĢĵ": 3583,
      "))Ċ": 3584,
      "èĻ½": 3585,
      "nal": 3586,
      "ÐµÐ½ÑĮ": 3587,
      "agement": 3588,
      "ãĤĮ": 3589,
      "Ġaccess": 3590,
      "ero": 3591,
      "Ġpur": 3592,
      "ä¹¡": 3593,
      "ainer": 3594,
      "å¤§å®¶": 3595,
      "Ġaff": 3596,
      "å¦Ī": 3597,
      "ana": 3598,
      "Ð¸ÑģÑĤ": 3599,
      "iles": 3600,
      "ÑĥÐ¿": 3601,
      "Ġservice": 3602,
      "Ġfac": 3603,
      "çĵ": 3604,
      "Ġdat": 3605,
      "èĥ½å¤Ł": 3606,
      "Ġport": 3607,
      "Ġsecond": 3608,
      "Ġsay": 3609,
      "ĠÐ²ÑģÐµ": 3610,
      "åħ¶ä¸Ń": 3611,
      "ä¸»ä¹ī": 3612,
      "cle": 3613,
      "resent": 3614,
      "ĠThey": 3615,
      "met": 3616,
      "init": 3617,
      "è·Ł": 3618,
      "åºĹ": 3619,
      "ret": 3620,
      "ÑĭÑħ": 3621,
      "å¦Ĥä½ķ": 3622,
      "íķ": 3623,
      "_name": 3624,
      "ÙĬØ©": 3625,
      "omen": 3626,
      "Ïī": 3627,
      "|Ċ": 3628,
      "do": 3629,
      "çļĦæĹ¶åĢĻ": 3630,
      "},Ċ": 3631,
      "á»ĳ": 3632,
      "ados": 3633,
      "Ġchang": 3634,
      "Ð±Ð¾ÑĤ": 3635,
      "éħĴ": 3636,
      "ĠSo": 3637,
      "File": 3638,
      "ackage": 3639,
      "Ġnext": 3640,
      "Ġcontrol": 3641,
      "Ġinterest": 3642,
      "å½¢æĪĲ": 3643,
      "éĴ±": 3644,
      "Ind": 3645,
      "ä½Ļ": 3646,
      "ï¼Įæĺ¯": 3647,
      "ĠAll": 3648,
      "Text": 3649,
      "ni": 3650,
      "ued": 3651,
      "wit": 3652,
      "æ¶²": 3653,
      "###": 3654,
      "ift": 3655,
      "ĠÏĥ": 3656,
      "On": 3657,
      "IM": 3658,
      "èĭ¥": 3659,
      "\";Ċ": 3660,
      "èĴ": 3661,
      "ella": 3662,
      "Ð½Ð¾Ðµ": 3663,
      "Ġ]": 3664,
      "è´Ń": 3665,
      "Ġevent": 3666,
      "tes": 3667,
      "loat": 3668,
      "ĠÎº": 3669,
      "éĵ¶": 3670,
      "Ġcount": 3671,
      "ãĢĲ": 3672,
      "ç»§": 3673,
      "æī¹": 3674,
      "Ġincluding": 3675,
      "éŃ": 3676,
      "åľ°åĮº": 3677,
      "mod": 3678,
      "Info": 3679,
      "è®¡ç®Ĺ": 3680,
      "_M": 3681,
      "ources": 3682,
      "obal": 3683,
      "åĺ": 3684,
      "è¡Įä¸º": 3685,
      "å¸®": 3686,
      "Ã¬": 3687,
      "ĠØ§ÙĦÙħ": 3688,
      "ãĢĳ": 3689,
      "ĠÐºÐ¾Ð¼": 3690,
      "_D": 3691,
      "æĭħ": 3692,
      ".M": 3693,
      "ãĤ¤": 3694,
      "ocus": 3695,
      "Ùī": 3696,
      "ĠÐĳ": 3697,
      "OS": 3698,
      "è´¨éĩı": 3699,
      "ogle": 3700,
      "åĲĹ": 3701,
      "æ²»çĸĹ": 3702,
      ",å¹¶": 3703,
      "umm": 3704,
      "æ½": 3705,
      "='": 3706,
      "Ġcomo": 3707,
      "Ġchange": 3708,
      "Ġrequire": 3709,
      "ration": 3710,
      "âĢ¦âĢ¦": 3711,
      "oad": 3712,
      "ours": 3713,
      "è´§": 3714,
      "æĿ¡ä»¶": 3715,
      "icro": 3716,
      "ync": 3717,
      "But": 3718,
      "Ä±n": 3719,
      "Ġspe": 3720,
      "Ġvi": 3721,
      "åı¶": 3722,
      "ĠOr": 3723,
      "Le": 3724,
      "US": 3725,
      "åİĨåı²": 3726,
      "fr": 3727,
      "Ġpower": 3728,
      "ĠIs": 3729,
      "ä¸ĥ": 3730,
      "åĿĹ": 3731,
      "ä¸ªäºº": 3732,
      "ï¼Įæľī": 3733,
      "ida": 3734,
      "ĠÎ±": 3735,
      "ĠPr": 3736,
      "Ġbas": 3737,
      ".html": 3738,
      "èĽ": 3739,
      "Ġeng": 3740,
      "\"></": 3741,
      "requ": 3742,
      "Ġinit": 3743,
      "ativ": 3744,
      "Ġmodel": 3745,
      "ĠØ±": 3746,
      "orn": 3747,
      "Ġmult": 3748,
      "ÎŃ": 3749,
      "é¦Ļ": 3750,
      "åŃ¦æł¡": 3751,
      "_n": 3752,
      "ç¼º": 3753,
      "æ±ī": 3754,
      "Al": 3755,
      "åĽ½éĻħ": 3756,
      "ç½Ĺ": 3757,
      "ands": 3758,
      "ura": 3759,
      "Ġavailable": 3760,
      "ÑĭÐ¹": 3761,
      "Ġdans": 3762,
      "Ġident": 3763,
      "ags": 3764,
      "AG": 3765,
      ".set": 3766,
      "èµ·æĿ¥": 3767,
      "uest": 3768,
      "etwork": 3769,
      "éļľ": 3770,
      "éĨ": 3771,
      "åĪ©çĶ¨": 3772,
      "éº": 3773,
      "Ġfew": 3774,
      "ĠÑįÑĤ": 3775,
      "ãĤĤ": 3776,
      "èĦĳ": 3777,
      "ĠThere": 3778,
      "icy": 3779,
      "Ġview": 3780,
      "state": 3781,
      "æĽ¾": 3782,
      "If": 3783,
      "ĠApp": 3784,
      ".P": 3785,
      "Ġsocial": 3786,
      "å¤«": 3787,
      "èŃ": 3788,
      "ili": 3789,
      "Time": 3790,
      "Ð¶Ð´": 3791,
      "Ġgroup": 3792,
      "çŁŃ": 3793,
      "æĽ²": 3794,
      "Ġgovern": 3795,
      "IR": 3796,
      "ï¼Įä»¥": 3797,
      "ĠLa": 3798,
      "ç»Ŀ": 3799,
      "Ġho": 3800,
      "Ġos": 3801,
      "Ġitem": 3802,
      "\".": 3803,
      "è§Ħå®ļ": 3804,
      "AB": 3805,
      "vironment": 3806,
      "åĲ§": 3807,
      "void": 3808,
      "éĤ£ä¹Ī": 3809,
      "json": 3810,
      "ĠTo": 3811,
      "Ġmonth": 3812,
      "æŃ¦": 3813,
      "è¿ĺæľī": 3814,
      "çīĮ": 3815,
      ".n": 3816,
      "_F": 3817,
      "):Ċ": 3818,
      "ç¨İ": 3819,
      "âĢĻre": 3820,
      "éħ¸": 3821,
      "ief": 3822,
      "åįķä½į": 3823,
      "è¡¨ç¤º": 3824,
      "Ġput": 3825,
      "Ġless": 3826,
      "Ġpath": 3827,
      "æ°´å¹³": 3828,
      "Ġold": 3829,
      "æĺ¥": 3830,
      "ĠPar": 3831,
      "Ġmight": 3832,
      "Ġwidth": 3833,
      "Ġprovide": 3834,
      "ãĥĪ": 3835,
      "çłģ": 3836,
      "ç´¢": 3837,
      "æĤ£èĢħ": 3838,
      "é¢ĳ": 3839,
      "ables": 3840,
      "nen": 3841,
      "ios": 3842,
      "ification": 3843,
      "åºĶè¯¥": 3844,
      "åĵª": 3845,
      "ouble": 3846,
      "erg": 3847,
      "Ġstudents": 3848,
      "å®£": 3849,
      "Ð¾Ðµ": 3850,
      "ç´§": 3851,
      "å¢ŀåĬł": 3852,
      "Ġlib": 3853,
      "æĸĩä»¶": 3854,
      "ries": 3855,
      "angu": 3856,
      "åĶ®": 3857,
      "æ¯Ĵ": 3858,
      "æĹħ": 3859,
      "off": 3860,
      "left": 3861,
      "ision": 3862,
      "ç¯": 3863,
      "äº§çĶŁ": 3864,
      "éĩĩçĶ¨": 3865,
      "é¢Ŀ": 3866,
      "åı¥": 3867,
      "Ġ{čĊ": 3868,
      "itional": 3869,
      "çĪ¶": 3870,
      "Ġbeh": 3871,
      "ken": 3872,
      "Ġprim": 3873,
      "Ð¸ÑĤÐµÐ»ÑĮ": 3874,
      "LO": 3875,
      "oken": 3876,
      "åįļ": 3877,
      "åı³": 3878,
      "($": 3879,
      "åį¡": 3880,
      "lish": 3881,
      "Ġau": 3882,
      ",æľī": 3883,
      "itive": 3884,
      "ä¹Ŀ": 3885,
      "æĦ¿": 3886,
      "trans": 3887,
      "éĶ®": 3888,
      "da": 3889,
      "Ð»Ðµ": 3890,
      "arge": 3891,
      "ĠUS": 3892,
      "ï¼Įä¸Ģ": 3893,
      "Config": 3894,
      "print": 3895,
      "å·¦": 3896,
      "èĥĮ": 3897,
      "èĩªçĦ¶": 3898,
      "icon": 3899,
      "æľ¨": 3900,
      "ctor": 3901,
      "Ġmus": 3902,
      "IP": 3903,
      "jor": 3904,
      "Ã©e": 3905,
      "Ġfont": 3906,
      "ches": 3907,
      "Ð¼ÐµÐ½": 3908,
      "ais": 3909,
      "iá»ĩ": 3910,
      "ances": 3911,
      "Ġgoing": 3912,
      "Ġwithin": 3913,
      "Ġleft": 3914,
      "Ġthings": 3915,
      "Ġbetter": 3916,
      ",è¿Ļ": 3917,
      "Ġ||": 3918,
      "ãģ£": 3919,
      "Ð¾Ð¼Ñĥ": 3920,
      "IL": 3921,
      "Î³": 3922,
      "illion": 3923,
      "å²ģ": 3924,
      "çģµ": 3925,
      "rist": 3926,
      "ately": 3927,
      "Ġtot": 3928,
      "mt": 3929,
      "Ð½ÑĭÐ¼": 3930,
      "lock": 3931,
      "ä¹ĭåĲİ": 3932,
      "ç¬¦": 3933,
      "ä»ĺ": 3934,
      "IG": 3935,
      "å¸Į": 3936,
      "åĪ¤": 3937,
      "ĠØ´": 3938,
      "acter": 3939,
      "æŁĵ": 3940,
      "Ø£": 3941,
      "ending": 3942,
      "åĽº": 3943,
      "Test": 3944,
      "å·´": 3945,
      "Ġstyle": 3946,
      "Request": 3947,
      "ived": 3948,
      "Ð°Ð½Ð¸Ñı": 3949,
      ".org": 3950,
      "(m": 3951,
      "ĠMar": 3952,
      "ression": 3953,
      "Ġfree": 3954,
      "Ġê": 3955,
      "--------------------------------": 3956,
      "éĵģ": 3957,
      "Ġcompany": 3958,
      "Sh": 3959,
      "ftware": 3960,
      "æįŁ": 3961,
      "Ġexample": 3962,
      "Ġrequest": 3963,
      "divid": 3964,
      "çĽ´æİ¥": 3965,
      "Ġste": 3966,
      "wer": 3967,
      "content": 3968,
      "Ġsuccess": 3969,
      "An": 3970,
      "Ġtoo": 3971,
      "oud": 3972,
      "Î±Î¹": 3973,
      "ç¨³": 3974,
      "ilit": 3975,
      "hes": 3976,
      "Ġstatic": 3977,
      "ÐµÑĢÐ°": 3978,
      "ç£": 3979,
      "vers": 3980,
      "Ġredu": 3981,
      "ĠâĢĺ": 3982,
      "Ð°Ð´": 3983,
      "[]": 3984,
      "çĽ®æłĩ": 3985,
      "ano": 3986,
      "inst": 3987,
      "çĹĩ": 3988,
      "adding": 3989,
      "Ðĺ": 3990,
      "Ġpod": 3991,
      "ots": 3992,
      "Ġpract": 3993,
      "));Ċ": 3994,
      "Ġhapp": 3995,
      "çĽĺ": 3996,
      "Ñĳ": 3997,
      "å®ŀéĻħ": 3998,
      "Ġqui": 3999,
      "Form": 4000,
      "Ġallow": 4001,
      "Ġchildren": 4002,
      "ĠÑģÐ¾": 4003,
      "Ġhead": 4004,
      "ä¸¤ä¸ª": 4005,
      "alt": 4006,
      "Ġsuper": 4007,
      "Ġprom": 4008,
      "æłĳ": 4009,
      "tain": 4010,
      "åĨ²": 4011,
      "Ġmar": 4012,
      "Î®": 4013,
      "å°Ħ": 4014,
      "ently": 4015,
      "Ġimpro": 4016,
      "Path": 4017,
      "Ġoffer": 4018,
      "HE": 4019,
      "ling": 4020,
      "Ġindivid": 4021,
      "dev": 4022,
      "ething": 4023,
      "len": 4024,
      "cer": 4025,
      "æĶ¿çŃĸ": 4026,
      "èĥŀ": 4027,
      "iones": 4028,
      "çĽ®åīį": 4029,
      "rap": 4030,
      "Ġ${": 4031,
      "Ġplan": 4032,
      ".w": 4033,
      "OP": 4034,
      "Ġbackground": 4035,
      "Ġgre": 4036,
      "uk": 4037,
      "Ġprint": 4038,
      ">čĊ": 4039,
      "./": 4040,
      "[i": 4041,
      "ito": 4042,
      "Ġbeg": 4043,
      "åľ°æĸ¹": 4044,
      "ç»ĥ": 4045,
      "Pl": 4046,
      "æ¦Ĥ": 4047,
      "ĠÐºÐ¾Ð½": 4048,
      "Set": 4049,
      "ĠÐ¾Ð¿": 4050,
      "è¯ī": 4051,
      "ards": 4052,
      "Ġemploy": 4053,
      "Ġkeep": 4054,
      "ä¿ĥ": 4055,
      "éĥ¨éĹ¨": 4056,
      "\"ĊĊ": 4057,
      "åģĩ": 4058,
      "Ġfollowing": 4059,
      "Ġcas": 4060,
      "oss": 4061,
      "æľĿ": 4062,
      "ç²¾ç¥ŀ": 4063,
      "Ġbody": 4064,
      "ä»£è¡¨": 4065,
      "à¤": 4066,
      "iod": 4067,
      "å®ĮæĪĲ": 4068,
      "åĪ¶åº¦": 4069,
      "äº«": 4070,
      "ume": 4071,
      "Ġanother": 4072,
      "Ġgen": 4073,
      "æ¤į": 4074,
      "rain": 4075,
      "Ġonline": 4076,
      ".D": 4077,
      ",ä¹Ł": 4078,
      "ideo": 4079,
      "Ã©n": 4080,
      "ÙĪØ±": 4081,
      "ä»ĸçļĦ": 4082,
      "/m": 4083,
      "Ð»Ð¾": 4084,
      "Ð½Ð¾ÑģÑĤÐ¸": 4085,
      "èįī": 4086,
      "Å¡": 4087,
      "éĴĪ": 4088,
      "Ġstd": 4089,
      "ules": 4090,
      "ples": 4091,
      "çĹĽ": 4092,
      "place": 4093,
      "éĿĻ": 4094,
      "ĠMan": 4095,
      "irm": 4096,
      "Ġant": 4097,
      "Ġreally": 4098,
      "Ð¢": 4099,
      "é£ŀ": 4100,
      "åī¯": 4101,
      "api": 4102,
      "å»ºç«ĭ": 4103,
      "åıĺåĮĸ": 4104,
      "ãĥĥ": 4105,
      "åģ¥åº·": 4106,
      "public": 4107,
      "ÑĥÑĢ": 4108,
      "Ġsich": 4109,
      "Ġsupp": 4110,
      "çĶļ": 4111,
      "è§£åĨ³": 4112,
      "ĠÑĪ": 4113,
      "Ðł": 4114,
      "ittle": 4115,
      "Ġservices": 4116,
      "plic": 4117,
      "ÑģÑĤÐ²ÐµÐ½": 4118,
      "Ð°Ð»Ð¸": 4119,
      "igen": 4120,
      "Ġinclude": 4121,
      "vol": 4122,
      "lected": 4123,
      "Ġ[]": 4124,
      ".j": 4125,
      "/b": 4126,
      "ho": 4127,
      "Ġnicht": 4128,
      "Ð½Ð¾ÑģÑĤÑĮ": 4129,
      "Ġposition": 4130,
      "éª¨": 4131,
      "ENT": 4132,
      ".\"Ċ": 4133,
      "å¼Ģå±ķ": 4134,
      "æĢİä¹Ī": 4135,
      "ĠCont": 4136,
      "èĢģå¸Ī": 4137,
      "åĪĽæĸ°": 4138,
      "ãģĨ": 4139,
      "åºŃ": 4140,
      "ingle": 4141,
      "Ġmo": 4142,
      "æİ¢": 4143,
      "Ġeduc": 4144,
      "Ġfeel": 4145,
      "ãģĵ": 4146,
      "æĿĤ": 4147,
      "Ø§Ø¯": 4148,
      "erver": 4149,
      "Ġann": 4150,
      "ãĤī": 4151,
      "ĠÙħÙĨ": 4152,
      "æ³¨æĦı": 4153,
      "ottom": 4154,
      "github": 4155,
      "thing": 4156,
      "pecial": 4157,
      "æĢ¥": 4158,
      "ben": 4159,
      "Ġconfig": 4160,
      "../../": 4161,
      "qual": 4162,
      "ini": 4163,
      "iled": 4164,
      "Ġess": 4165,
      "oney": 4166,
      "OL": 4167,
      "Ã´ng": 4168,
      "Ġmax": 4169,
      "Ġcell": 4170,
      "Ġstudy": 4171,
      "ç½ª": 4172,
      "Ġaccount": 4173,
      "ä¹İ": 4174,
      "æľºæŀĦ": 4175,
      "Ġ()": 4176,
      "Ġele": 4177,
      "Ð½Ð¾Ð²": 4178,
      "ä¸ĢæŃ¥": 4179,
      "ponent": 4180,
      "ç»¼": 4181,
      "eder": 4182,
      "ols": 4183,
      "å¸Ŀ": 4184,
      "cal": 4185,
      "ING": 4186,
      "ÑģÑĤÐ²Ð°": 4187,
      ".N": 4188,
      "ĠÐ¾Ñģ": 4189,
      "ba": 4190,
      "Qu": 4191,
      "},": 4192,
      "åĲĦç§į": 4193,
      "abor": 4194,
      "çº³": 4195,
      "ä»·åĢ¼": 4196,
      "Service": 4197,
      "bed": 4198,
      "ä¸Ģç§į": 4199,
      "åħµ": 4200,
      "ĠĠĠĠĠĠĠĠĠĠĠĠĠĠĠĠĠ": 4201,
      "Ġplus": 4202,
      "#include": 4203,
      "Ġunderstand": 4204,
      "ja": 4205,
      "ormal": 4206,
      "Ġable": 4207,
      "åī§": 4208,
      "yl": 4209,
      "____": 4210,
      "ç¬ĳ": 4211,
      "Ġexperience": 4212,
      "(&": 4213,
      "atic": 4214,
      "Ġjob": 4215,
      "ÑĥÐ¶": 4216,
      "Ġwar": 4217,
      "ĠÐ¸Ð»Ð¸": 4218,
      "Ð¾Ð´Ð°": 4219,
      "(p": 4220,
      "è½¯": 4221,
      "è¿ĲåĬ¨": 4222,
      "à¸": 4223,
      "Ġeen": 4224,
      "Ġtarget": 4225,
      "ÐĶ": 4226,
      "ias": 4227,
      "æĻļ": 4228,
      "ãģ¾ãģĻ": 4229,
      "Ġocc": 4230,
      "Ġassert": 4231,
      "With": 4232,
      "ee": 4233,
      "Ġrequired": 4234,
      "è¯Ĺ": 4235,
      "Ð»Ñİ": 4236,
      "Ð¸Ð½Ð°": 4237,
      "================": 4238,
      "åīĤ": 4239,
      "ÑĩÐ°": 4240,
      "User": 4241,
      "ĠÃ¼": 4242,
      "Ġpersonal": 4243,
      "uration": 4244,
      "rad": 4245,
      "Ġseg": 4246,
      "Add": 4247,
      "ÑĢÐ°Ð½": 4248,
      "Ġbenef": 4249,
      "Ġ*Ċ": 4250,
      "pen": 4251,
      "ulation": 4252,
      "((": 4253,
      "ÑĢÐ°Ð·": 4254,
      "ä¸įä¼ļ": 4255,
      "çŃĳ": 4256,
      "App": 4257,
      "Or": 4258,
      "ĉĉĉĉĉ": 4259,
      "åģľ": 4260,
      "ording": 4261,
      "\"çļĦ": 4262,
      "Ġ<<": 4263,
      "çĦ¶åĲİ": 4264,
      "çĲĨè®º": 4265,
      "ĠMed": 4266,
      "éĺ¿": 4267,
      "pty": 4268,
      "ĠÄĳá»": 4269,
      "ĠĠĠĠĠĠĠĠĠĠĠĠĠĠĠĠĠĠĠĠĠĠĠĠ": 4270,
      "æķ£": 4271,
      "åħ¸": 4272,
      "Ġhard": 4273,
      "ĠÐĵ": 4274,
      ");čĊ": 4275,
      "Ïĩ": 4276,
      "fic": 4277,
      "Ġsomething": 4278,
      "\"><": 4279,
      "PE": 4280,
      "ump": 4281,
      "ç¨ĭåºı": 4282,
      "Ġborder": 4283,
      "æ¨¡å¼ı": 4284,
      "aps": 4285,
      "Ġtak": 4286,
      "ä¿ĿæĬ¤": 4287,
      "Ġsever": 4288,
      "ĠÐ¿Ð¾Ñģ": 4289,
      "amente": 4290,
      "èĸ": 4291,
      "vious": 4292,
      "å¼Ģåıĳ": 4293,
      "ĠÎµ": 4294,
      "ï¼Įå°±": 4295,
      "_N": 4296,
      "Ġç¬¬": 4297,
      "ĠçļĦ": 4298,
      "ories": 4299,
      "åıªæľī": 4300,
      "æľīæķĪ": 4301,
      "æĶ¯æĮģ": 4302,
      "cz": 4303,
      "Ġfull": 4304,
      "CH": 4305,
      "img": 4306,
      "æľĢåĲİ": 4307,
      "/d": 4308,
      "Ġou": 4309,
      "Ġinte": 4310,
      "indows": 4311,
      "Ġfund": 4312,
      "Ġask": 4313,
      "-g": 4314,
      "pert": 4315,
      "Ġexist": 4316,
      "èıľ": 4317,
      "åº§": 4318,
      "çĺ": 4319,
      "/c": 4320,
      "Ġalways": 4321,
      "ought": 4322,
      "æĵįä½ľ": 4323,
      "Ġfut": 4324,
      "Ľi": 4325,
      "ëĭ": 4326,
      "èĭı": 4327,
      "è®¾å¤ĩ": 4328,
      "æĢ§çļĦ": 4329,
      "pace": 4330,
      "ĠvÃł": 4331,
      "pper": 4332,
      "uck": 4333,
      "èŃ¦": 4334,
      "åºĵ": 4335,
      "head": 4336,
      "tn": 4337,
      "Ġconc": 4338,
      "Ġindust": 4339,
      "elle": 4340,
      "åĪļ": 4341,
      "ended": 4342,
      "info": 4343,
      "Ġsure": 4344,
      "Ġwer": 4345,
      "ĠÐ»Ð¸": 4346,
      "ãĢĤè¿Ļ": 4347,
      "ĠCent": 4348,
      "Ġvá»": 4349,
      "ĠIN": 4350,
      "button": 4351,
      "å³": 4352,
      "rac": 4353,
      "Ġsite": 4354,
      "ĠNo": 4355,
      "ÑģÑĮ": 4356,
      "Ġlink": 4357,
      "Ġbased": 4358,
      "FF": 4359,
      "èĤī": 4360,
      "Ġpossible": 4361,
      "ayer": 4362,
      "mm": 4363,
      "æıĲåĩº": 4364,
      "æĪı": 4365,
      "atures": 4366,
      "Ã¡c": 4367,
      "ĠSystem": 4368,
      "å¥ĩ": 4369,
      "ych": 4370,
      "é¡º": 4371,
      "Context": 4372,
      "ende": 4373,
      "Äį": 4374,
      "Ġbreak": 4375,
      "Ġdom": 4376,
      "äºĨè§£": 4377,
      "Ġmargin": 4378,
      "Ġoften": 4379,
      "(c": 4380,
      "Ġproblem": 4381,
      "ç»Ĩèĥŀ": 4382,
      ",æĺ¯": 4383,
      "ention": 4384,
      "Ġtrad": 4385,
      "vec": 4386,
      "æĪĳçļĦ": 4387,
      "Ġmaterial": 4388,
      "Ġrange": 4389,
      "åħ¨åĽ½": 4390,
      "Ġorig": 4391,
      "Ġwhe": 4392,
      "ĠrÃ©": 4393,
      "Ġsince": 4394,
      "ä¹ħ": 4395,
      "ĠØ¯Ø±": 4396,
      "SS": 4397,
      "rict": 4398,
      "è°Ī": 4399,
      "ĠSie": 4400,
      "ither": 4401,
      "Ġturn": 4402,
      "æĴŃ": 4403,
      "aff": 4404,
      "All": 4405,
      "ÛĮÙĨ": 4406,
      "åºĬ": 4407,
      "Ġcode": 4408,
      "ĠEl": 4409,
      "Æ¡": 4410,
      "çĶ¨æĪ·": 4411,
      "á»§": 4412,
      "ieve": 4413,
      "äº¿": 4414,
      "Ġeconom": 4415,
      "Ġgi": 4416,
      "æŃĮ": 4417,
      "Ġdisplay": 4418,
      "ĠÑįÑĤÐ¾": 4419,
      "ĠÐ¾Ð´": 4420,
      "Ġnat": 4421,
      "ĠUniversity": 4422,
      "ä¸Ģæł·": 4423,
      "Ð»ÐµÐ½": 4424,
      "ĠComm": 4425,
      "Ġog": 4426,
      "Ġindividual": 4427,
      "result": 4428,
      "Ġhttp": 4429,
      "////////": 4430,
      "ĠÎ¼": 4431,
      "ĠSu": 4432,
      "éĩĬ": 4433,
      "èİ·å¾Ĺ": 4434,
      "åŃ£": 4435,
      "Ġprop": 4436,
      "Ðľ": 4437,
      "Ġinstall": 4438,
      "Ð¸ÑĩÐµÑģÐº": 4439,
      "é½": 4440,
      "Ġtreat": 4441,
      "åħ³äºİ": 4442,
      "Ġgiven": 4443,
      "æĢĿæĥ³": 4444,
      "è¡Įä¸ļ": 4445,
      "æ³ķå¾ĭ": 4446,
      "åİĤ": 4447,
      "èĻ½çĦ¶": 4448,
      "script": 4449,
      "ĠÙģÙĬ": 4450,
      "elt": 4451,
      "ĉc": 4452,
      "oto": 4453,
      "å¥ĸ": 4454,
      "ones": 4455,
      "ering": 4456,
      "Ġteam": 4457,
      "ĠAss": 4458,
      "(d": 4459,
      "rel": 4460,
      "Ã©t": 4461,
      "va": 4462,
      "Ġpage": 4463,
      "ige": 4464,
      "ĠÐºÐ°": 4465,
      "åłĤ": 4466,
      "');Ċ": 4467,
      "Ġresults": 4468,
      "anguage": 4469,
      ".pro": 4470,
      "Ð¸Ð»Ð¸": 4471,
      "æľīéĻĲ": 4472,
      "Ġappe": 4473,
      "Ġaus": 4474,
      "è®¡åĪĴ": 4475,
      "çī¹åĪ«": 4476,
      "éģĩ": 4477,
      "Ã¹": 4478,
      "Ġwebs": 4479,
      "vo": 4480,
      "Åĳ": 4481,
      "èĳĹ": 4482,
      "ograph": 4483,
      "comp": 4484,
      "ready": 4485,
      "zi": 4486,
      "(self": 4487,
      "ides": 4488,
      "èĹı": 4489,
      ".e": 4490,
      "book": 4491,
      "ension": 4492,
      "ÑģÐ»": 4493,
      "ua": 4494,
      "ãĢį": 4495,
      "æħ¢": 4496,
      "Log": 4497,
      "å¾ĹåĪ°": 4498,
      "._": 4499,
      "áºŃ": 4500,
      "ãĤ¯": 4501,
      "Ġagainst": 4502,
      "ĠBl": 4503,
      "å®Ĺ": 4504,
      "ilt": 4505,
      "Ġans": 4506,
      "ç«ŀ": 4507,
      "ql": 4508,
      "æĿ¾": 4509,
      "Mod": 4510,
      "Ġeine": 4511,
      "Des": 4512,
      "Ġbro": 4513,
      "éĻĪ": 4514,
      "n't": 4515,
      "æĪĳåĽ½": 4516,
      "æĤ¨": 4517,
      "Stat": 4518,
      "ãĢĮ": 4519,
      "indow": 4520,
      "Ġsem": 4521,
      "oin": 4522,
      "åĲĪä½ľ": 4523,
      "yt": 4524,
      "Ġhet": 4525,
      "ãĢĤâĢĿĊ": 4526,
      "Ġlittle": 4527,
      "Ġdevelopment": 4528,
      "ä»į": 4529,
      "æ¥¼": 4530,
      "Ġfood": 4531,
      "Ġinput": 4532,
      "è¿½": 4533,
      "æķĻå¸Ī": 4534,
      "ican": 4535,
      "éĢĲ": 4536,
      "æĿĢ": 4537,
      "emplate": 4538,
      "ury": 4539,
      "ĠmÃ¡s": 4540,
      "ÙĨØ¯": 4541,
      "Event": 4542,
      "sk": 4543,
      "onse": 4544,
      "plement": 4545,
      "æĶ¿æ²»": 4546,
      "ita": 4547,
      "æ¹ĸ": 4548,
      "Ġlot": 4549,
      "Ġbig": 4550,
      "uring": 4551,
      "é¦Ĩ": 4552,
      "çĸ«": 4553,
      "Ġheight": 4554,
      "Ġmot": 4555,
      "åı«": 4556,
      "Ġworking": 4557,
      "dep": 4558,
      "Index": 4559,
      "åĨ·": 4560,
      "è´£ä»»": 4561,
      "ĠlÃł": 4562,
      "ĠGet": 4563,
      "lient": 4564,
      "Ġaddress": 4565,
      "ĠIntern": 4566,
      "éĢĢ": 4567,
      "lib": 4568,
      "%,": 4569,
      "Ġfore": 4570,
      "æľīåħ³": 4571,
      "Ġelect": 4572,
      "èª": 4573,
      "æĮ¥": 4574,
      "å½¢å¼ı": 4575,
      "Ġdocument": 4576,
      "earch": 4577,
      ",ä¸Ģ": 4578,
      "':": 4579,
      "ä¾§": 4580,
      "start": 4581,
      "è®¨": 4582,
      "ä¸°": 4583,
      "irt": 4584,
      "yd": 4585,
      "agn": 4586,
      "Ġmom": 4587,
      "ç§ĳæĬĢ": 4588,
      "æľĭ": 4589,
      "Ġfamily": 4590,
      "å¥Ĺ": 4591,
      "list": 4592,
      "å½Ĵ": 4593,
      "ä¼łç»Ł": 4594,
      "Ġ/*": 4595,
      "Ġrecord": 4596,
      "åĽ°": 4597,
      "ç¬Ķ": 4598,
      "Ġarea": 4599,
      "')Ċ": 4600,
      "åĮĹäº¬": 4601,
      "box": 4602,
      "ç»ĵåĲĪ": 4603,
      "ç¥¨": 4604,
      "ç§¯æŀģ": 4605,
      "èģļ": 4606,
      "ille": 4607,
      "ĠGr": 4608,
      "(),": 4609,
      "\"]": 4610,
      "aper": 4611,
      "Ġdiv": 4612,
      "äººä»¬": 4613,
      "Ġdest": 4614,
      "Î¹Îº": 4615,
      "md": 4616,
      "create": 4617,
      "Ð³Ð°": 4618,
      "ÐºÑĤ": 4619,
      "ï¼īï¼Į": 4620,
      "zt": 4621,
      "å°ģ": 4622,
      "ĠQu": 4623,
      "sel": 4624,
      "æĭĽ": 4625,
      "acy": 4626,
      "Ġblock": 4627,
      "Ġgive": 4628,
      "Ġspecial": 4629,
      "Int": 4630,
      "ĠÐ´Ð¾": 4631,
      "Ã³w": 4632,
      "thers": 4633,
      "çĩ": 4634,
      "åį±": 4635,
      "èĻĳ": 4636,
      "aces": 4637,
      "ĠVer": 4638,
      "Ġsus": 4639,
      "ç»ıèĲ¥": 4640,
      "åİŁåĽł": 4641,
      "ilter": 4642,
      "ä»¥ä¸Ĭ": 4643,
      "æĹ¢": 4644,
      "åĿĲ": 4645,
      "æĭ¿": 4646,
      "èĦī": 4647,
      "ĠĠĠĠĠĠĠĠĠĠĠĠĠĠĠĠĠĠĠĠĠĠĠĠĠĠĠĠĠĠĠ": 4648,
      "ãĥ«": 4649,
      "ãĢĤä½Ĩ": 4650,
      "aim": 4651,
      "Ã¸": 4652,
      "ÑĥÐ¼": 4653,
      "Ġversion": 4654,
      "Ġtable": 4655,
      "image": 4656,
      "Ġlight": 4657,
      "è¡¨çİ°": 4658,
      "Ġcult": 4659,
      "âĢĶâĢĶ": 4660,
      "You": 4661,
      "Ġfocus": 4662,
      "çĶ°": 4663,
      "Ġspecific": 4664,
      "ills": 4665,
      "æī§è¡Į": 4666,
      "Ġtitle": 4667,
      "èīºæľ¯": 4668,
      "Ġcourse": 4669,
      "æĿĲæĸĻ": 4670,
      "æĺ¯åĲ¦": 4671,
      "å®Ī": 4672,
      "æ´¾": 4673,
      "éĻĦ": 4674,
      "ably": 4675,
      "åħ°": 4676,
      "Ġmessage": 4677,
      "uth": 4678,
      "Ġoptions": 4679,
      "å¹´çļĦ": 4680,
      "Ġresponse": 4681,
      "ora": 4682,
      "æī©": 4683,
      "(n": 4684,
      "/p": 4685,
      "ched": 4686,
      "ĠDes": 4687,
      "ï¼ļĊ": 4688,
      "ids": 4689,
      "Ġaf": 4690,
      "ĠÐ¿ÑĢÐµ": 4691,
      "ï¼Įä½ł": 4692,
      "ãģı": 4693,
      "Ġåľ¨": 4694,
      "Ġauch": 4695,
      "æ¯Ľ": 4696,
      "Ġ**": 4697,
      "Ġmeans": 4698,
      "_B": 4699,
      "Ø¶": 4700,
      "è¯¯": 4701,
      "unk": 4702,
      "/*": 4703,
      "ama": 4704,
      "èµĦæĸĻ": 4705,
      "ĠÐ£": 4706,
      "Ġbir": 4707,
      "ä¸Ģèµ·": 4708,
      "ĠÐ²Ð¾Ð·": 4709,
      "ç©¿": 4710,
      "Exception": 4711,
      "Ïį": 4712,
      "Ġpri": 4713,
      "æķĪæŀľ": 4714,
      "ips": 4715,
      "Ð¾Ð»ÑĮÐºÐ¾": 4716,
      "å½©": 4717,
      "ĠØ®": 4718,
      "ĠLicense": 4719,
      "Ġgovernment": 4720,
      "ç»¼åĲĪ": 4721,
      "çľĭåĪ°": 4722,
      "ÐµÐ»Ð¸": 4723,
      "Ġabs": 4724,
      "Ġteach": 4725,
      "çļĦäºĭ": 4726,
      "reate": 4727,
      "Ġcomb": 4728,
      "ĠÑģÐ°Ð¼": 4729,
      "ibility": 4730,
      "Ġparticular": 4731,
      "sc": 4732,
      "Val": 4733,
      "Ã¶n": 4734,
      "-h": 4735,
      "}}": 4736,
      "Ġdays": 4737,
      "çĿ£": 4738,
      "EL": 4739,
      "ĠEng": 4740,
      "Ġsource": 4741,
      "ãĥª": 4742,
      "Node": 4743,
      "Ġutil": 4744,
      "Ġens": 4745,
      "define": 4746,
      "åª": 4747,
      "Ã¡t": 4748,
      "acc": 4749,
      "Ġlik": 4750,
      "ä»·æł¼": 4751,
      "_h": 4752,
      "èĵ": 4753,
      "Ġmeas": 4754,
      "ungen": 4755,
      ",ä»¥": 4756,
      "Ġrespons": 4757,
      "Ġ)Ċ": 4758,
      "æľĭåıĭ": 4759,
      "ĠÃ¨": 4760,
      "æ··": 4761,
      "Ġcalled": 4762,
      "ä¸įæĸŃ": 4763,
      "Ġfour": 4764,
      "des": 4765,
      "ÙĪÙĦ": 4766,
      "Ġlarge": 4767,
      "Ġsignific": 4768,
      "Field": 4769,
      "ales": 4770,
      "ãģķ": 4771,
      "áº§": 4772,
      "Ġdig": 4773,
      "ured": 4774,
      "Ð·Ð°": 4775,
      "åĬ³åĬ¨": 4776,
      "Ġdone": 4777,
      "åıªæĺ¯": 4778,
      "èĮĥåĽ´": 4779,
      "çĻ»": 4780,
      "ÑģÑĤÐ²Ð¾": 4781,
      "Ġ/>Ċ": 4782,
      "åĲ¯": 4783,
      "çĬ¯": 4784,
      "éģ¿": 4785,
      "max": 4786,
      "Ġ...": 4787,
      "Ġmean": 4788,
      "å¯¼èĩ´": 4789,
      "çĬ¶æĢģ": 4790,
      "Ġsrc": 4791,
      "Ø°": 4792,
      "Ġrisk": 4793,
      ".T": 4794,
      "Ġhuman": 4795,
      "Ġfar": 4796,
      "Ġnever": 4797,
      "EM": 4798,
      "çĶ³": 4799,
      "åĮ»éĻ¢": 4800,
      "èĭ¦": 4801,
      "Ð¸Ð»ÑĮ": 4802,
      "æ£ĢæŁ¥": 4803,
      "éĿł": 4804,
      "And": 4805,
      "åĪĺ": 4806,
      "çĶļèĩ³": 4807,
      "mb": 4808,
      "ĠGo": 4809,
      "Ġweb": 4810,
      "Ġdeterm": 4811,
      "ators": 4812,
      "ĠÐ±ÑĥÐ´": 4813,
      "Ġmeet": 4814,
      "Ġneeds": 4815,
      "At": 4816,
      "Ġ});Ċ": 4817,
      "åį·": 4818,
      "from": 4819,
      "ĠBr": 4820,
      "ĠPol": 4821,
      "check": 4822,
      "orage": 4823,
      "Ġcertain": 4824,
      "è§īå¾Ĺ": 4825,
      "Ġsz": 4826,
      "Ġsays": 4827,
      ",æĪĳä»¬": 4828,
      "ores": 4829,
      "äºĪ": 4830,
      "OD": 4831,
      "Out": 4832,
      "ç»¿": 4833,
      "ges": 4834,
      "Ã¤r": 4835,
      "Ġcover": 4836,
      "uation": 4837,
      "sch": 4838,
      "Man": 4839,
      "ĠReg": 4840,
      "heck": 4841,
      "æĺ¾ç¤º": 4842,
      "æıĲåįĩ": 4843,
      "æĸ°çļĦ": 4844,
      "ĠWhen": 4845,
      "ĠcÃ³": 4846,
      "Ġmaking": 4847,
      "ÙĬÙĨ": 4848,
      "Ġpolit": 4849,
      "lick": 4850,
      "Ġcomplet": 4851,
      "è´µ": 4852,
      "icial": 4853,
      "ison": 4854,
      "ĠInst": 4855,
      "gress": 4856,
      "ribute": 4857,
      "ÐºÐµ": 4858,
      "ored": 4859,
      "ĠAt": 4860,
      "ä»»ä½ķ": 4861,
      "ç©ºéĹ´": 4862,
      "éĹ»": 4863,
      "Ġenvironment": 4864,
      "çİ°ä»£": 4865,
      "å¹³åı°": 4866,
      "eta": 4867,
      "-in": 4868,
      "Ġpercent": 4869,
      "ï¼ĮâĢľ": 4870,
      "è·Ŀ": 4871,
      "Ġneg": 4872,
      "Ġvers": 4873,
      "Of": 4874,
      "è·µ": 4875,
      "Ġcir": 4876,
      "Ġcontext": 4877,
      "è¿ĩç¨ĭä¸Ń": 4878,
      "Ġcommunity": 4879,
      "ULL": 4880,
      "æīĺ": 4881,
      "creen": 4882,
      "æĿ¥è¯´": 4883,
      "âĢĿçļĦ": 4884,
      "roller": 4885,
      "pi": 4886,
      "Ġinc": 4887,
      "Ġsci": 4888,
      "uer": 4889,
      "ario": 4890,
      "ayout": 4891,
      "æĪĲåĬŁ": 4892,
      ".âĢĿ": 4893,
      "roid": 4894,
      "Size": 4895,
      "ĠCar": 4896,
      "EX": 4897,
      "çĶ²": 4898,
      "åĢŁ": 4899,
      "way": 4900,
      "ohn": 4901,
      "Ġtotal": 4902,
      "Î´": 4903,
      "Be": 4904,
      "é¡¾": 4905,
      "çĮ®": 4906,
      "éĴŁ": 4907,
      "Ð°ÑĤÐµÐ»ÑĮ": 4908,
      "ĠÙĬ": 4909,
      "hel": 4910,
      "iem": 4911,
      "ãģį": 4912,
      "åħ·ä½ĵ": 4913,
      "é¢Ĩå¯¼": 4914,
      "è¡£": 4915,
      "Ġbase": 4916,
      "urther": 4917,
      "Ġhig": 4918,
      "çļĦå¤§": 4919,
      "Ġcommon": 4920,
      "éľĢæ±Ĥ": 4921,
      "å¸ĮæľĽ": 4922,
      "å¾Ħ": 4923,
      "Ð²ÐµÑĤ": 4924,
      "Ð´ÐµÐ»": 4925,
      "Map": 4926,
      "ï¼Įåħ¶": 4927,
      "Is": 4928,
      "Ġseem": 4929,
      "Ð¼Ðµ": 4930,
      "Response": 4931,
      "apt": 4932,
      "Class": 4933,
      "ãģĹãģ¦": 4934,
      ".add": 4935,
      "ÑĨÐ¸Ñı": 4936,
      "å®ģ": 4937,
      "Ġmajor": 4938,
      "ysis": 4939,
      "Ġlow": 4940,
      "ĠÑĢÐ°Ð±Ð¾ÑĤ": 4941,
      "Message": 4942,
      "âĢĮ": 4943,
      "Ġvous": 4944,
      "å¤ľ": 4945,
      "web": 4946,
      "Ġ__": 4947,
      "Ġ);Ċ": 4948,
      "Ġshort": 4949,
      "Ð½Ð¾Ð¼": 4950,
      "outh": 4951,
      "Ġdeb": 4952,
      "Ġbecome": 4953,
      "èĦ±": 4954,
      ".R": 4955,
      "fect": 4956,
      "ÑĤÐ¾ÑĢ": 4957,
      "ç»į": 4958,
      "ĠAb": 4959,
      "Ð°Ð¼Ð¸": 4960,
      "ÎµÎ¹": 4961,
      "Ġtax": 4962,
      "æĿŁ": 4963,
      "åķĬ": 4964,
      "default": 4965,
      "Ð¾Ñı": 4966,
      "å®Įåħ¨": 4967,
      "ogn": 4968,
      "Ġwon": 4969,
      "æİĪ": 4970,
      "nection": 4971,
      "ä½ĵç³»": 4972,
      "Ġalready": 4973,
      "çĨŁ": 4974,
      "Ġkind": 4975,
      "ĉf": 4976,
      "Ġuns": 4977,
      "èĪª": 4978,
      "å®ŀæĸ½": 4979,
      "ÑĥÐ±": 4980,
      "_w": 4981,
      "ĠØŃ": 4982,
      "Ġom": 4983,
      "ĠEuro": 4984,
      "ĠÑĢÑĥ": 4985,
      "æĶ»": 4986,
      "ï¼Įä»İ": 4987,
      "ãĥ©": 4988,
      "ï¼Įå¦Ĥ": 4989,
      "æ¸Ĳ": 4990,
      "ĠThese": 4991,
      "Ġtimes": 4992,
      "ÙĪØ¯": 4993,
      "Ġgra": 4994,
      "Ðķ": 4995,
      "ĠÑĤÐµ": 4996,
      "åĨ³å®ļ": 4997,
      "ÙĪÙĨ": 4998,
      "æŀ¶": 4999,
      "Inst": 5000,
      "Ġinvol": 5001,
      "Ñį": 5002,
      "Ġthá»": 5003,
      "nÃŃ": 5004,
      "ÑİÑī": 5005,
      "è¾¾åĪ°": 5006,
      "gs": 5007,
      "Ð²ÐµÑĢ": 5008,
      "ocation": 5009,
      "(b": 5010,
      "true": 5011,
      "ä½łçļĦ": 5012,
      "Ð°Ð»Ð°": 5013,
      "Ġfri": 5014,
      "Ġnecess": 5015,
      "åĸľæ¬¢": 5016,
      "Ġmind": 5017,
      "igned": 5018,
      "Up": 5019,
      "Result": 5020,
      "ication": 5021,
      "ising": 5022,
      "ÑģÐ»Ð¸": 5023,
      "rect": 5024,
      "ç¡®å®ļ": 5025,
      "ä¸ļåĬ¡": 5026,
      "èĨľ": 5027,
      "ç§Ģ": 5028,
      "idence": 5029,
      "ĠIm": 5030,
      "Ġperiod": 5031,
      "uj": 5032,
      ".B": 5033,
      "Not": 5034,
      "Ġals": 5035,
      "Ġair": 5036,
      "ä½ľåĵģ": 5037,
      "dis": 5038,
      "version": 5039,
      "Ð°Ð½Ð¸Ðµ": 5040,
      "Ġpa": 5041,
      "åĬłå¼º": 5042,
      "uz": 5043,
      "ummary": 5044,
      "æĹ¶ä»£": 5045,
      "Ġ\"$": 5046,
      "!--": 5047,
      "Ð¸Ð²Ð°": 5048,
      "ites": 5049,
      "ç²ī": 5050,
      "ĠØ¨Ùĩ": 5051,
      "Ġaction": 5052,
      "áĥ": 5053,
      "Ġdies": 5054,
      "\"\"": 5055,
      "Ġsent": 5056,
      "æĹ¥æľ¬": 5057,
      "ĠEr": 5058,
      "ised": 5059,
      "Ġmoney": 5060,
      "Ġauthor": 5061,
      "æ±½": 5062,
      "aring": 5063,
      "Ġcamp": 5064,
      "è¿Ľä¸ĢæŃ¥": 5065,
      "Ġindex": 5066,
      "ii": 5067,
      "åĽłç´ł": 5068,
      "ires": 5069,
      "minist": 5070,
      "Ġparam": 5071,
      "ĠÂ»": 5072,
      "æıı": 5073,
      "å»ºçŃĳ": 5074,
      "å¢ŀéķ¿": 5075,
      ",å°±": 5076,
      "idd": 5077,
      "çĳ": 5078,
      "ç±»åŀĭ": 5079,
      "Ġparticip": 5080,
      "iff": 5081,
      "æ¯ķ": 5082,
      "æ°¸": 5083,
      "eters": 5084,
      "ç¤¼": 5085,
      "my": 5086,
      "ä½Ľ": 5087,
      "Ġphys": 5088,
      "lished": 5089,
      "çİ©": 5090,
      "è¯Ĭ": 5091,
      "ĠGod": 5092,
      "éĽ¨": 5093,
      "ĠĊĊ": 5094,
      "valid": 5095,
      "Code": 5096,
      "ĠDo": 5097,
      "Ġbar": 5098,
      "å·¥ä¸ļ": 5099,
      "è½®": 5100,
      "æĺ¯åľ¨": 5101,
      "ls": 5102,
      "Ġclient": 5103,
      "ä¸Ģæ¬¡": 5104,
      "ÑĢÑĥÐ³": 5105,
      "æĸĹ": 5106,
      "æ¸¯": 5107,
      "æĶ¹éĿ©": 5108,
      "åĮºåŁŁ": 5109,
      "å»¶": 5110,
      "ĠCan": 5111,
      "æĦıä¹ī": 5112,
      "ĠMe": 5113,
      "mo": 5114,
      "ÃŃt": 5115,
      "è°¢": 5116,
      "std": 5117,
      "çļĩ": 5118,
      "Ġprotect": 5119,
      "ista": 5120,
      "ĠWhat": 5121,
      "uffer": 5122,
      "alf": 5123,
      "Array": 5124,
      "orld": 5125,
      "Ġnie": 5126,
      "What": 5127,
      "imal": 5128,
      "èĻļ": 5129,
      "La": 5130,
      "Hand": 5131,
      "Ġbegin": 5132,
      "abled": 5133,
      "ĠÐ»Ñİ": 5134,
      "æķĳ": 5135,
      "Ġnetwork": 5136,
      "Ġpast": 5137,
      "ç¬¬ä¸ī": 5138,
      "Ð°ÑĢÐ°": 5139,
      "Ġcontact": 5140,
      "Ġuntil": 5141,
      "Ġcrit": 5142,
      "ç³ĸ": 5143,
      "ette": 5144,
      "Ġdue": 5145,
      "Ġcomput": 5146,
      "mi": 5147,
      "éļıçĿĢ": 5148,
      "Ġ(Ċ": 5149,
      "Ø§Ø¨": 5150,
      "using": 5151,
      "æĽ´å¤ļ": 5152,
      "ãĤ¢": 5153,
      "ç¨ĭåº¦": 5154,
      "Ġimage": 5155,
      "PI": 5156,
      "ÑĢÑı": 5157,
      "Ġwhy": 5158,
      "çĸ¾": 5159,
      "Ġrepresent": 5160,
      "---": 5161,
      "Ġwebsite": 5162,
      "å¨ģ": 5163,
      "Ð´Ðµ": 5164,
      "è®¿": 5165,
      "Ġener": 5166,
      "æ¶Īè´¹": 5167,
      "orth": 5168,
      "atform": 5169,
      "`Ċ": 5170,
      "Ġexc": 5171,
      "gl": 5172,
      "################": 5173,
      "olean": 5174,
      "ements": 5175,
      "oper": 5176,
      "Ġcond": 5177,
      "_r": 5178,
      "ĠÐ¿ÐµÑĢÐµ": 5179,
      "çĸĳ": 5180,
      "ĠShe": 5181,
      "Ġwhether": 5182,
      "Ġpers": 5183,
      "Ġhttps": 5184,
      "éĢı": 5185,
      "pportun": 5186,
      "Ġdire": 5187,
      "atter": 5188,
      "Ġpain": 5189,
      "å¤®": 5190,
      "ĠThat": 5191,
      "Ġbit": 5192,
      "odes": 5193,
      "æĹłæ³ķ": 5194,
      "ç¯ĩ": 5195,
      "ä»¥ä¸ĭ": 5196,
      "Ð°ÑĪ": 5197,
      ",å¯¹": 5198,
      "ius": 5199,
      "æĺİæĺ¾": 5200,
      "æ´Ĺ": 5201,
      "âĢĿãĢĤ": 5202,
      "Ġdiscuss": 5203,
      "Ġdescri": 5204,
      "é£İéĻ©": 5205,
      "style": 5206,
      "è¾ĳ": 5207,
      "Ġquestion": 5208,
      "Ġtre": 5209,
      "sub": 5210,
      "éĺ¶æ®µ": 5211,
      "function": 5212,
      "ìĹ": 5213,
      "ãģĤ": 5214,
      "lev": 5215,
      "Ġtu": 5216,
      "æİª": 5217,
      "èĽĭ": 5218,
      "Ġproducts": 5219,
      "Ð·Ñĭ": 5220,
      "ĠHowever": 5221,
      "ÑĢÐµÐ¼": 5222,
      "ruction": 5223,
      ",ä¸º": 5224,
      "ï¼ŁĊ": 5225,
      "Æ°á»Ŀ": 5226,
      "Ġcompon": 5227,
      "ï¼Įå¯¹": 5228,
      "Ġfuture": 5229,
      "Ġcou": 5230,
      "uel": 5231,
      "resh": 5232,
      "sole": 5233,
      "Ġentre": 5234,
      "nie": 5235,
      "ĠAN": 5236,
      "å´": 5237,
      "curity": 5238,
      "äº®": 5239,
      "çĶ¨äºİ": 5240,
      "çĽĸ": 5241,
      "Ġcenter": 5242,
      "Ð¸ÑĤÐµ": 5243,
      "Ġsoftware": 5244,
      "Ġvisit": 5245,
      "âĢĻve": 5246,
      "Ġarr": 5247,
      "Ġothers": 5248,
      "iáº¿": 5249,
      "Ġcur": 5250,
      "å®«": 5251,
      "link": 5252,
      "Def": 5253,
      "[\"": 5254,
      "ector": 5255,
      "ç»©": 5256,
      "uments": 5257,
      "Ġamount": 5258,
      "Ġseveral": 5259,
      "ĠÑģÐµ": 5260,
      "åĩºçīĪ": 5261,
      "éľ²": 5262,
      "_re": 5263,
      "ĠChrist": 5264,
      "ĠFl": 5265,
      "ï¼Įåı¯": 5266,
      "ĠÐĹ": 5267,
      "());Ċ": 5268,
      "Ġmi": 5269,
      "ä¸Ŀ": 5270,
      "æĺ¯ä¸Ģä¸ª": 5271,
      "è®¾ç½®": 5272,
      "Ġcountry": 5273,
      "Æ°á»£": 5274,
      "è¿Ľåħ¥": 5275,
      "ĠÐķ": 5276,
      "èĦļ": 5277,
      "(this": 5278,
      "éĢłæĪĲ": 5279,
      "raft": 5280,
      "æ²Ļ": 5281,
      "åıĤä¸İ": 5282,
      ".r": 5283,
      "ĠÐ¿ÐµÑĢ": 5284,
      "-size": 5285,
      "à®": 5286,
      "inary": 5287,
      "åĪĨåĪ«": 5288,
      "åĢĴ": 5289,
      "åĩºæĿ¥": 5290,
      "è®¸å¤ļ": 5291,
      "Ġ*/": 5292,
      "Ġassoci": 5293,
      "å©ļ": 5294,
      "Ġgot": 5295,
      "æı¡": 5296,
      "Ġmembers": 5297,
      "éĩįçĤ¹": 5298,
      "ç¼©": 5299,
      "åħ³éĶ®": 5300,
      "ä¸½": 5301,
      "é¡µ": 5302,
      "ĠMin": 5303,
      "å¯¹è±¡": 5304,
      "å¤ı": 5305,
      "endo": 5306,
      "Ġspace": 5307,
      "å¸®åĬ©": 5308,
      "rows": 5309,
      "Ð¸ÑĢ": 5310,
      "Pr": 5311,
      "è¡Ĺ": 5312,
      "ternal": 5313,
      "Ġside": 5314,
      "soft": 5315,
      "Ġ===": 5316,
      "Ð¿Ð»": 5317,
      "imate": 5318,
      "è¿ĻéĩĮ": 5319,
      "-n": 5320,
      "Ġ;": 5321,
      "Ġleast": 5322,
      "itÃ©": 5323,
      "point": 5324,
      "Ġtoday": 5325,
      "æ²ī": 5326,
      "side": 5327,
      "Ð¾Ð»ÑĮÐ·": 5328,
      ".F": 5329,
      "å®ŀè·µ": 5330,
      "perties": 5331,
      ".log": 5332,
      "æ¬§": 5333,
      "CC": 5334,
      "title": 5335,
      "Ġwomen": 5336,
      "å®¹æĺĵ": 5337,
      "Ġ+=": 5338,
      "éĻĨ": 5339,
      "å°ļ": 5340,
      "åľĨ": 5341,
      "æİĮ": 5342,
      "uid": 5343,
      "Ġ/**Ċ": 5344,
      "¤Ĳ": 5345,
      "áº¥t": 5346,
      "Ġvot": 5347,
      "Ġdistribut": 5348,
      "ĠÐ½Ð¾": 5349,
      "æīįèĥ½": 5350,
      "yth": 5351,
      "gt": 5352,
      "ye": 5353,
      "åıĤåĬł": 5354,
      "çīĽ": 5355,
      "_type": 5356,
      "Ġgame": 5357,
      "ancial": 5358,
      "Ġeither": 5359,
      "Ġabove": 5360,
      "ç«¥": 5361,
      "ĉm": 5362,
      "formation": 5363,
      "Ġhaving": 5364,
      "ä¸Ĭæµ·": 5365,
      "çĤİ": 5366,
      "Ø«": 5367,
      "Ġkom": 5368,
      "ç»§ç»Ń": 5369,
      "ç¼ĵ": 5370,
      "Ġintern": 5371,
      "ĠÑģÐ²Ð¾": 5372,
      "Ad": 5373,
      "Ġrad": 5374,
      "åįĸ": 5375,
      "éģĹ": 5376,
      "Ġmach": 5377,
      "Ġperm": 5378,
      "ĠsiÄĻ": 5379,
      "struct": 5380,
      "Ġprob": 5381,
      "ney": 5382,
      "Ġod": 5383,
      "èĥľ": 5384,
      "Ġlarg": 5385,
      "Ġcopy": 5386,
      "ĊĊĊ": 5387,
      "Ġpi": 5388,
      "åĩ½": 5389,
      "Ð½ÑĥÑİ": 5390,
      "Ġpadding": 5391,
      "status": 5392,
      "ilities": 5393,
      "ãĢĤæĪĳ": 5394,
      "Ð²Ð¸": 5395,
      "artment": 5396,
      "æĭ¥": 5397,
      "é¢ĨåŁŁ": 5398,
      "ights": 5399,
      "ĠÙĤ": 5400,
      "nb": 5401,
      "å°¼": 5402,
      "lin": 5403,
      "Ġvalues": 5404,
      "Ġfn": 5405,
      "enu": 5406,
      "ley": 5407,
      "No": 5408,
      "Ġopportun": 5409,
      "å®ŀéªĮ": 5410,
      "ĠØ¬": 5411,
      "ival": 5412,
      "éĵ¶è¡Į": 5413,
      "Ġtalk": 5414,
      "ony": 5415,
      "ÙĩØ§": 5416,
      "]}": 5417,
      "çŃ¾": 5418,
      "éĩĳèŀį": 5419,
      "Ġalt": 5420,
      "Ġtá»": 5421,
      "åŁ¹åħ»": 5422,
      "Ġenergy": 5423,
      "bol": 5424,
      ",ä»İ": 5425,
      "ÏĨ": 5426,
      "Color": 5427,
      "Ġbring": 5428,
      "osp": 5429,
      "!!": 5430,
      "Ã¼n": 5431,
      "Ġcompet": 5432,
      "Ġfun": 5433,
      "height": 5434,
      "Ġecho": 5435,
      "hol": 5436,
      "åħ¨éĿ¢": 5437,
      "Ġut": 5438,
      "å·Ŀ": 5439,
      "mat": 5440,
      "Ġcompan": 5441,
      "Ġmoment": 5442,
      "oute": 5443,
      "ĠAdd": 5444,
      "Ð½Ð¸Ð¼": 5445,
      "uit": 5446,
      "Ð¾ÑĢÐ°": 5447,
      "æĩ": 5448,
      "ĠÐĽ": 5449,
      "rary": 5450,
      "ively": 5451,
      "æĸ¹æ¡Ī": 5452,
      "Ð¾Ð±Ñĭ": 5453,
      "utions": 5454,
      "ĠDr": 5455,
      "Ġsym": 5456,
      "Ã²": 5457,
      "Ġ×": 5458,
      "ï¼ģĊ": 5459,
      "éĵ¾": 5460,
      "Ġmag": 5461,
      "Ð°Ñħ": 5462,
      "éĺ´": 5463,
      "æĮīçħ§": 5464,
      "Ġpress": 5465,
      ".is": 5466,
      "(x": 5467,
      "é±": 5468,
      "Ġhat": 5469,
      "é¡¶": 5470,
      "Ġreason": 5471,
      "ç¡¬": 5472,
      "Ġol": 5473,
      "Input": 5474,
      "ä»ĭç»į": 5475,
      "rack": 5476,
      "ä¼ļè®®": 5477,
      "ä¸ľè¥¿": 5478,
      "ï¼ĮæĪĳä»¬": 5479,
      "èĦ¸": 5480,
      "ä¸ĢçĽ´": 5481,
      "ĠTest": 5482,
      "iple": 5483,
      "fort": 5484,
      "Ġhar": 5485,
      "Ġapplication": 5486,
      "ML": 5487,
      ".re": 5488,
      "æĢĢ": 5489,
      "Ġavec": 5490,
      "ï¼Įåį³": 5491,
      "Ġdos": 5492,
      "Ph": 5493,
      "utes": 5494,
      "è¡ĮæĶ¿": 5495,
      "annel": 5496,
      "è¯¢": 5497,
      "è¶£": 5498,
      "æĦıè¯Ĩ": 5499,
      "æĪĲæľ¬": 5500,
      "ĠÐ´Ð°": 5501,
      "body": 5502,
      "çİī": 5503,
      "æ°ĳæĹı": 5504,
      "åªĴ": 5505,
      "Ð°Ð½Ð¾Ð²": 5506,
      "ÑģÑĤÐ°Ð²": 5507,
      "path": 5508,
      "Ġtoget": 5509,
      "Status": 5510,
      "éĩıçļĦ": 5511,
      "roups": 5512,
      "Ġsens": 5513,
      "Î¹Î±": 5514,
      "Ġconnect": 5515,
      "ÐµÐºÑĤ": 5516,
      "Ġtogether": 5517,
      "TR": 5518,
      "ĠpÃ¥": 5519,
      "Ġalong": 5520,
      "è¯´æĺİ": 5521,
      "ĠNot": 5522,
      "ĠNe": 5523,
      "imum": 5524,
      "Ġconsum": 5525,
      "ride": 5526,
      "urg": 5527,
      "ilar": 5528,
      "Î¸": 5529,
      "Ġreview": 5530,
      "åĤ¨": 5531,
      "Ġsearch": 5532,
      "é±¼": 5533,
      "amespace": 5534,
      "æ´²": 5535,
      "Ġinfl": 5536,
      "éĩİ": 5537,
      "ĠCal": 5538,
      "ĠØ¢": 5539,
      "Ġbool": 5540,
      "åľ£": 5541,
      "ĠWith": 5542,
      "Ġquality": 5543,
      "Ġexec": 5544,
      "èº«ä½ĵ": 5545,
      "èĮ¶": 5546,
      "å®¶åºŃ": 5547,
      "ises": 5548,
      "abase": 5549,
      "label": 5550,
      "åĽ½åĨħ": 5551,
      "åħ¶å®ŀ": 5552,
      "è§¦": 5553,
      "éĺħ": 5554,
      "ÑģÑģ": 5555,
      "mente": 5556,
      "down": 5557,
      "Ġgeneral": 5558,
      "Ġmais": 5559,
      "ĠÐ¿Ð¾Ðº": 5560,
      "æĶ¹åıĺ": 5561,
      "åŁ¹è®Ń": 5562,
      "ä¹ĭä¸Ģ": 5563,
      "çŀ": 5564,
      "Comm": 5565,
      "ara": 5566,
      "zo": 5567,
      "Ġsingle": 5568,
      "Ġstop": 5569,
      "ince": 5570,
      "Ġoch": 5571,
      ".sh": 5572,
      "];Ċ": 5573,
      "è´Łè´£": 5574,
      "ä½įç½®": 5575,
      "Ġaway": 5576,
      "Ġeste": 5577,
      "ç§ģ": 5578,
      "Ġrelations": 5579,
      "Ġorg": 5580,
      "Ġacross": 5581,
      "#define": 5582,
      "ä¿ĥè¿Ľ": 5583,
      "åıĤèĢĥ": 5584,
      "éĽ·": 5585,
      "Ð¾Ð»Ðµ": 5586,
      "{}": 5587,
      "èĢĥèĻĳ": 5588,
      "\\n": 5589,
      "Ð³Ð¸": 5590,
      "ĠÙĥ": 5591,
      "Trans": 5592,
      "çĶµåŃĲ": 5593,
      "å®½": 5594,
      "static": 5595,
      "Ġenough": 5596,
      "ledge": 5597,
      "ĠAmerican": 5598,
      "Inter": 5599,
      "ĠÐ¾Ð½": 5600,
      "object": 5601,
      "éĺ»": 5602,
      "äº¤éĢļ": 5603,
      "áº¡i": 5604,
      "Ġ(!": 5605,
      "iam": 5606,
      "ĠÏĦÎ·": 5607,
      "ç®Ģåįķ": 5608,
      "ĠDie": 5609,
      "LI": 5610,
      "ĠĠĠĠĠĠĠĠĠĠ": 5611,
      "Ġrole": 5612,
      "Ġmillion": 5613,
      "Ġpotential": 5614,
      "æĸ¹åĲĳ": 5615,
      "ĠSte": 5616,
      "Ġproperty": 5617,
      "ipp": 5618,
      "ÑİÑĤÑģÑı": 5619,
      "ç»ıéªĮ": 5620,
      "ä»»åĬ¡": 5621,
      "è°ģ": 5622,
      "Ġcá»§": 5623,
      "ĠĠĠĠĠĠĊ": 5624,
      "ç¨³å®ļ": 5625,
      "VER": 5626,
      "åŃĶ": 5627,
      "åĩĢ": 5628,
      "æ±ĩ": 5629,
      "Ġvia": 5630,
      "cope": 5631,
      "Ġthought": 5632,
      "Ġich": 5633,
      "è¸": 5634,
      "now": 5635,
      "ï¼Įå®ĥ": 5636,
      "eld": 5637,
      "åį«çĶŁ": 5638,
      "encia": 5639,
      "witch": 5640,
      "Ġauto": 5641,
      "();ĊĊ": 5642,
      "cover": 5643,
      "ä¼°": 5644,
      "ĠÐµÐ³Ð¾": 5645,
      "éĽ¶": 5646,
      "][": 5647,
      "ä»Ĭå¤©": 5648,
      "urch": 5649,
      "Ð½Ð¸Ðº": 5650,
      "Ã¢n": 5651,
      "ãĤĵ": 5652,
      "å®ľ": 5653,
      "åĵĪ": 5654,
      "æ¢¦": 5655,
      "æĢķ": 5656,
      "åĿı": 5657,
      "client": 5658,
      "Ġsignificant": 5659,
      "åĪº": 5660,
      "active": 5661,
      "Ġten": 5662,
      "Ġsubject": 5663,
      "Ġter": 5664,
      "å¼±": 5665,
      "Ĥ¬": 5666,
      "çĥĪ": 5667,
      "_g": 5668,
      "é½Ĳ": 5669,
      "osed": 5670,
      "åħ±åĲĮ": 5671,
      ",è®©": 5672,
      "ÑĹ": 5673,
      "serv": 5674,
      "ivity": 5675,
      "map": 5676,
      "çļĦéĹ®é¢ĺ": 5677,
      "æĦŁè§ī": 5678,
      "Ġcá»§a": 5679,
      "Em": 5680,
      "cha": 5681,
      "ĠĠĠĠĠĠĠĠĠĠĠĠ": 5682,
      "ĠAct": 5683,
      "How": 5684,
      "è¯Ńè¨Ģ": 5685,
      "çļĦåıĳå±ķ": 5686,
      "Ġoption": 5687,
      "-S": 5688,
      "Ġclear": 5689,
      "åĬª": 5690,
      "ĠÃ®": 5691,
      "Ġstrong": 5692,
      "éļĲ": 5693,
      "CE": 5694,
      "éĴ¢": 5695,
      "Ġemail": 5696,
      "ä¸įåı¯": 5697,
      "ÑĢÐ¾Ñģ": 5698,
      "istic": 5699,
      "å·¨": 5700,
      "Ġknown": 5701,
      "Ġsche": 5702,
      "Ġãĥ": 5703,
      "ä¿ĿæĮģ": 5704,
      "zer": 5705,
      "Ġred": 5706,
      "çĽ®çļĦ": 5707,
      "ĠWeb": 5708,
      "Ġlove": 5709,
      "Ġmap": 5710,
      "Ġinf": 5711,
      "ensive": 5712,
      "Ġespecial": 5713,
      "udio": 5714,
      "Ġhold": 5715,
      "Ġsob": 5716,
      "mes": 5717,
      "âĢĻll": 5718,
      "Element": 5719,
      "_e": 5720,
      "ĠSc": 5721,
      "ĠPart": 5722,
      "ĠCo": 5723,
      "å¿ĥçĲĨ": 5724,
      "Ġoutput": 5725,
      "Ġir": 5726,
      "HT": 5727,
      "Ġchall": 5728,
      "obile": 5729,
      "ffic": 5730,
      "Sub": 5731,
      "-color": 5732,
      "ena": 5733,
      "Ð¾Ð´Ñĥ": 5734,
      "ĠDep": 5735,
      "è§ĦåĪĴ": 5736,
      "Ġmakes": 5737,
      "ster": 5738,
      "ained": 5739,
      "Button": 5740,
      "ptions": 5741,
      "Model": 5742,
      "èĤĮ": 5743,
      "ĉs": 5744,
      "used": 5745,
      "Ġdam": 5746,
      "å¹¸": 5747,
      "é¥®": 5748,
      "There": 5749,
      "ĠMay": 5750,
      "æľīéĻĲåħ¬åı¸": 5751,
      "^{[": 5752,
      "Ġimplement": 5753,
      "oms": 5754,
      "ĠDis": 5755,
      "El": 5756,
      "ĠÐ¿Ð¾Ð¼": 5757,
      "Ġvalid": 5758,
      "PS": 5759,
      "å¹¼": 5760,
      "Ġautom": 5761,
      "èıĮ": 5762,
      "Ð¾ÑģÑĤÐ°Ð²": 5763,
      "Ġimpact": 5764,
      "Ġchanges": 5765,
      "æĥĬ": 5766,
      "avor": 5767,
      "icrosoft": 5768,
      "Ã¤t": 5769,
      "Ġexam": 5770,
      "å½ĵæĹ¶": 5771,
      "Ġdate": 5772,
      "itions": 5773,
      "Date": 5774,
      "è¡¡": 5775,
      "åĩĨå¤ĩ": 5776,
      "Ġissues": 5777,
      "åģı": 5778,
      "è°ĵ": 5779,
      "Ġach": 5780,
      "åĿĢ": 5781,
      "block": 5782,
      "åĩ¡": 5783,
      "Ġwerden": 5784,
      "Ġsind": 5785,
      "Ġindic": 5786,
      "ÑĥÑģ": 5787,
      "Param": 5788,
      "ĠÐ·Ð°Ðº": 5789,
      "æĮģç»Ń": 5790,
      "å¼¹": 5791,
      "Ã¦": 5792,
      "Ġtechnology": 5793,
      "åįĪ": 5794,
      "```ĊĊ": 5795,
      "Ġprofess": 5796,
      "åŃ¦éĻ¢": 5797,
      "ÙĦÙī": 5798,
      "atis": 5799,
      "anel": 5800,
      "æĹħæ¸¸": 5801,
      "echo": 5802,
      "ãĢĤä»ĸ": 5803,
      "rodu": 5804,
      "ç«Ł": 5805,
      "depend": 5806,
      "æľīçļĦ": 5807,
      "å¹ħ": 5808,
      "asing": 5809,
      "æĬĺ": 5810,
      "Ġmanagement": 5811,
      "aging": 5812,
      "ih": 5813,
      "Ġsugg": 5814,
      "ĠÑĤÐ¾": 5815,
      "aining": 5816,
      "Ġthing": 5817,
      "æĺł": 5818,
      "Ġmedia": 5819,
      "amos": 5820,
      "ä¹ĭåīį": 5821,
      "Ġonce": 5822,
      "ĠÐ¸ÑģÐ¿": 5823,
      "ä»ª": 5824,
      "Ġoder": 5825,
      "æĹ§": 5826,
      "åİļ": 5827,
      "Ġrespect": 5828,
      "ãĥ¼ãĤ": 5829,
      "ĠUnited": 5830,
      "Ġinitial": 5831,
      "åĮ»çĸĹ": 5832,
      "open": 5833,
      "Ġhom": 5834,
      "çĲĨè§£": 5835,
      "ä¼ĳ": 5836,
      "Client": 5837,
      "Ġalg": 5838,
      "Ġtell": 5839,
      "å°¤": 5840,
      "Ġtyp": 5841,
      "Ġoriginal": 5842,
      "uct": 5843,
      "åĩıå°ĳ": 5844,
      "Ġestab": 5845,
      "TE": 5846,
      "time": 5847,
      "ãģĻãĤĭ": 5848,
      "ä¸Ģä¸ĭ": 5849,
      "åĨľä¸ļ": 5850,
      "ĠBo": 5851,
      "}/": 5852,
      "èľ": 5853,
      "è¯Ħä»·": 5854,
      "éĶĢåĶ®": 5855,
      "Ġsuggest": 5856,
      "ji": 5857,
      "kl": 5858,
      "Ã¨re": 5859,
      "Ġdeg": 5860,
      "Ġdise": 5861,
      "Ġprovided": 5862,
      "Ġlater": 5863,
      "Ã¨s": 5864,
      "è²": 5865,
      "Ġsimple": 5866,
      "éĸ": 5867,
      "cher": 5868,
      "æŃ£å¸¸": 5869,
      "åĶĲ": 5870,
      "Ã¤n": 5871,
      "ä¹±": 5872,
      "ditions": 5873,
      "äº¤æĺĵ": 5874,
      "åĬ±": 5875,
      "arr": 5876,
      "sg": 5877,
      "Ġcook": 5878,
      "ĠSome": 5879,
      "æľ«": 5880,
      "Ġamong": 5881,
      "åħħåĪĨ": 5882,
      "æ¡¥": 5883,
      "Ð½Ñĥ": 5884,
      "Ġcompanies": 5885,
      "AME": 5886,
      "Ïİ": 5887,
      "Ġcam": 5888,
      "ĠGe": 5889,
      "åħ³æ³¨": 5890,
      "MA": 5891,
      "æĭį": 5892,
      "Ġhistory": 5893,
      "From": 5894,
      "èµĦéĩĳ": 5895,
      "Ġstatus": 5896,
      "ati": 5897,
      "Ġquestions": 5898,
      "ĠÃ¶": 5899,
      "header": 5900,
      "é²ľ": 5901,
      "ners": 5902,
      ".js": 5903,
      "Ġupdate": 5904,
      "ply": 5905,
      "åĪĳ": 5906,
      "andom": 5907,
      "Ġload": 5908,
      "é¤Ĳ": 5909,
      "Ġsam": 5910,
      "Ð°ÐµÑĤ": 5911,
      "ĠAut": 5912,
      "ĠEurope": 5913,
      "çļĦè¯Ŀ": 5914,
      "è®¤è¯Ĩ": 5915,
      "ä¹Łä¸į": 5916,
      "Ġbelow": 5917,
      "ĠPer": 5918,
      "ape": 5919,
      "éĺµ": 5920,
      "Ġbuy": 5921,
      "atal": 5922,
      "æĬĵ": 5923,
      "local": 5924,
      "Sc": 5925,
      "args": 5926,
      "Ð¾ÑģÑĤÐ¸": 5927,
      "-re": 5928,
      "ÑĦÐ¾ÑĢ": 5929,
      "éĤ£äºĽ": 5930,
      "ĠÐ±Ð¾Ð»ÑĮ": 5931,
      "ä¸Ńå¤®": 5932,
      "ĠCor": 5933,
      ".x": 5934,
      "Ġconcern": 5935,
      "Ġdiffic": 5936,
      "Ġaz": 5937,
      "rl": 5938,
      "ÏĦÎ±": 5939,
      "ä¼´": 5940,
      "æľºåĪ¶": 5941,
      "å§Ķåĳĺ": 5942,
      "Ġnode": 5943,
      "Ġpatients": 5944,
      "Ġclaim": 5945,
      "tre": 5946,
      "ube": 5947,
      "assert": 5948,
      "åĩºäºĨ": 5949,
      "Ġrate": 5950,
      "ãģĹãģŁ": 5951,
      "lication": 5952,
      "ÑĤÐ¸Ð²": 5953,
      "II": 5954,
      "wards": 5955,
      "é¦ĸåħĪ": 5956,
      "è¿Ĳè¡Į": 5957,
      "sl": 5958,
      "éĽª": 5959,
      "éĿ¢çļĦ": 5960,
      "ä¸¥éĩį": 5961,
      "èĤ¿": 5962,
      "Ġtraining": 5963,
      "Table": 5964,
      "ç»ıè¿ĩ": 5965,
      "ç«ŀäºī": 5966,
      "ram": 5967,
      "æģ¶": 5968,
      "Å¯": 5969,
      "ĠDE": 5970,
      "Ãµ": 5971,
      "Ġmatch": 5972,
      "-to": 5973,
      "lege": 5974,
      "ä¸įåĲĮçļĦ": 5975,
      "oi": 5976,
      "ategory": 5977,
      "åĩ½æķ°": 5978,
      "position": 5979,
      "iction": 5980,
      "Over": 5981,
      "Ã©m": 5982,
      "Ġindustry": 5983,
      "ental": 5984,
      "query": 5985,
      "Ġlimit": 5986,
      "åĬªåĬĽ": 5987,
      "Ġearly": 5988,
      "å®¢æĪ·": 5989,
      "Ġhost": 5990,
      "Ġintegr": 5991,
      "Ġeasy": 5992,
      "ëĭ¤": 5993,
      "äº¦": 5994,
      "{{": 5995,
      "lood": 5996,
      "iques": 5997,
      "ria": 5998,
      "ç¦ģ": 5999,
      "Ġrecomm": 6000,
      "Ġhá»": 6001,
      "Ġglobal": 6002,
      "ande": 6003,
      "Ġdella": 6004,
      "Ġcut": 6005,
      "itted": 6006,
      "è°ĥæķ´": 6007,
      "\".Ċ": 6008,
      "else": 6009,
      "ä¿Ŀéļľ": 6010,
      "åĵģçīĮ": 6011,
      "zie": 6012,
      "æĮĩå¯¼": 6013,
      ")čĊ": 6014,
      "æĽ´åĬł": 6015,
      "è´«": 6016,
      "ivo": 6017,
      "Ðĵ": 6018,
      "åĿļæĮģ": 6019,
      "ĠNULL": 6020,
      "cht": 6021,
      "Ġcreated": 6022,
      "Ðĳ": 6023,
      "ìĿ´": 6024,
      "çī¹çĤ¹": 6025,
      "_data": 6026,
      "Ġdoing": 6027,
      "æĪĲç«ĭ": 6028,
      "Ġmal": 6029,
      "ira": 6030,
      "INT": 6031,
      "ades": 6032,
      "section": 6033,
      "ä¿Ŀè¯ģ": 6034,
      "Ġnov": 6035,
      "Ð²Ð¾Ð´": 6036,
      "çīĻ": 6037,
      "Ð°Ð³": 6038,
      "Ġí": 6039,
      "Image": 6040,
      "å¼ķèµ·": 6041,
      "åĲİçļĦ": 6042,
      "Ġvideo": 6043,
      "most": 6044,
      "CL": 6045,
      "ç´¯": 6046,
      "Ġ{ĊĊ": 6047,
      "å¦ĩ": 6048,
      "è´¥": 6049,
      "db": 6050,
      "ĠAm": 6051,
      "ÙĬØ±": 6052,
      "çº¸": 6053,
      "åİŁåĪĻ": 6054,
      "ĠÃ¼ber": 6055,
      "Ġja": 6056,
      "package": 6057,
      "ete": 6058,
      "æķ´ä¸ª": 6059,
      ".L": 6060,
      "table": 6061,
      "ula": 6062,
      ".png": 6063,
      "æĹ¶æľŁ": 6064,
      "èĶ": 6065,
      "board": 6066,
      "ç¿»": 6067,
      "ku": 6068,
      "ko": 6069,
      "ptr": 6070,
      ".id": 6071,
      "nbsp": 6072,
      "æ¨¡åŀĭ": 6073,
      "flow": 6074,
      "Group": 6075,
      "Ġtask": 6076,
      "ops": 6077,
      "rid": 6078,
      "ima": 6079,
      "è¯¸": 6080,
      "æ¶¦": 6081,
      "åĩĿ": 6082,
      "ynam": 6083,
      "ĠÑģÐ¼": 6084,
      "oll": 6085,
      "Ġland": 6086,
      "Ġfurther": 6087,
      "ĠMy": 6088,
      "çĶŁçī©": 6089,
      "Ġlooking": 6090,
      "<div": 6091,
      "php": 6092,
      "ĠInt": 6093,
      "å»ºè®®": 6094,
      "Ġli": 6095,
      "Ð¾ÑģÑģ": 6096,
      "ÑģÐºÐ¾Ð¹": 6097,
      "Ġtreatment": 6098,
      "èį£": 6099,
      "è¯ĳ": 6100,
      "çĶŁæĢģ": 6101,
      "Ġclean": 6102,
      "åĳĪ": 6103,
      "IF": 6104,
      "Ð¾Ð½Ð°": 6105,
      "åıįåºĶ": 6106,
      "Ġmer": 6107,
      "Ġsystems": 6108,
      "ĠPre": 6109,
      "ĠOne": 6110,
      "ä¸įè¦ģ": 6111,
      "oph": 6112,
      "Ġmes": 6113,
      "ĠÐ°Ð²": 6114,
      "ï¼Įä½¿": 6115,
      "ixed": 6116,
      "Count": 6117,
      "Ġproblems": 6118,
      "Ġincrease": 6119,
      "å¯»": 6120,
      "Ġsett": 6121,
      "Ġbei": 6122,
      "Ġquick": 6123,
      "éĢĶ": 6124,
      "ĠÐ¼Ð¾Ð¶ÐµÑĤ": 6125,
      ":ĊĊ": 6126,
      "ĠGener": 6127,
      "Ġflex": 6128,
      "æ±½è½¦": 6129,
      "æ¥ļ": 6130,
      "åĩºçļĦ": 6131,
      "éº»": 6132,
      "ĉĉĉĉĉĉ": 6133,
      "-M": 6134,
      "åıĹåĪ°": 6135,
      "Ġsum": 6136,
      "é»ĺ": 6137,
      "change": 6138,
      "Ġshare": 6139,
      "ä¸įè¿ĩ": 6140,
      "Ġalle": 6141,
      "æ´ĭ": 6142,
      "ela": 6143,
      "ç§ĭ": 6144,
      "ÐµÐ½Ð¸Ð¸": 6145,
      "rix": 6146,
      "Ġnos": 6147,
      "Ġjour": 6148,
      ",ä»ĸ": 6149,
      "ĠÐ´Ð¾Ð»": 6150,
      "ĠMark": 6151,
      "IV": 6152,
      "ãģĬ": 6153,
      "aged": 6154,
      "ï¼Įä¸º": 6155,
      "çĶŁåĳ½": 6156,
      "where": 6157,
      "äº¡": 6158,
      "Ġhouse": 6159,
      "Ġconditions": 6160,
      "Ð°ÑĤÐ°": 6161,
      "df": 6162,
      "Ġcontinue": 6163,
      "ä¸įä»ħ": 6164,
      "æ¶ī": 6165,
      "Ġurl": 6166,
      "array": 6167,
      "ador": 6168,
      ".to": 6169,
      "èĪŀ": 6170,
      "Ġimm": 6171,
      "lig": 6172,
      "\",\"": 6173,
      "ĠÃ§": 6174,
      "æİ¥åıĹ": 6175,
      "ĠState": 6176,
      "é¹": 6177,
      "encies": 6178,
      "Ġexpected": 6179,
      "Ġbi": 6180,
      "Ġtypes": 6181,
      "Ġlanguage": 6182,
      "Ġactually": 6183,
      "ATE": 6184,
      "ifier": 6185,
      "Dis": 6186,
      ",ä½ł": 6187,
      "æ°§": 6188,
      "adas": 6189,
      "UM": 6190,
      "When": 6191,
      "het": 6192,
      "æ¸¸æĪı": 6193,
      "iento": 6194,
      "éĽĨåĽ¢": 6195,
      "Ġnormal": 6196,
      "ona": 6197,
      "å±Ĭ": 6198,
      "Ġeducation": 6199,
      "_pro": 6200,
      "acity": 6201,
      "Ġface": 6202,
      "Ġfall": 6203,
      "bb": 6204,
      "Rec": 6205,
      "though": 6206,
      "è®¢": 6207,
      "å½ĵçĦ¶": 6208,
      "Ġcharacter": 6209,
      "æİªæĸ½": 6210,
      "è¿İ": 6211,
      "æ¯Ķå¦Ĥ": 6212,
      "Ġmut": 6213,
      "ç¾¤ä¼Ĺ": 6214,
      "azione": 6215,
      "ĠAg": 6216,
      "ialog": 6217,
      "è¿Ļæł·çļĦ": 6218,
      "esch": 6219,
      "ĠÃ¤": 6220,
      "ĠÐ±ÐµÐ·": 6221,
      "çľŁæŃ£": 6222,
      "nov": 6223,
      "Ġetc": 6224,
      "Ġprovides": 6225,
      "UE": 6226,
      "Ġcomes": 6227,
      "Ġlive": 6228,
      "ãģ§ãģĻ": 6229,
      "ĠÐ½Ð¾Ð²": 6230,
      "Ġcompl": 6231,
      "Ġyoung": 6232,
      "ĠÐŃ": 6233,
      "Ð»Ð°Ð´": 6234,
      "ãĥ»": 6235,
      "Ð£": 6236,
      "mark": 6237,
      "å¸ģ": 6238,
      "xy": 6239,
      "ras": 6240,
      "Ġlabel": 6241,
      "uilder": 6242,
      "'re": 6243,
      "ils": 6244,
      ".W": 6245,
      "ç»ĦæĪĲ": 6246,
      "âĢ¢": 6247,
      "Ġareas": 6248,
      ">>": 6249,
      "clus": 6250,
      "Ġsie": 6251,
      "Ġdon't": 6252,
      "çŁ¿": 6253,
      "ython": 6254,
      "æĬ¥åĳĬ": 6255,
      "(e": 6256,
      "æİī": 6257,
      "ÐµÐ»Ñı": 6258,
      "è¯¾ç¨ĭ": 6259,
      "ĠIS": 6260,
      "Ð¾Ð³Ð´Ð°": 6261,
      "ĠComp": 6262,
      "Ġhigher": 6263,
      "çº¯": 6264,
      "ĠMon": 6265,
      "æ¡Ĩ": 6266,
      "ÑĩÐ¸": 6267,
      "Ġperformance": 6268,
      "éĻįä½İ": 6269,
      "Ġlikely": 6270,
      "Ġnatural": 6271,
      "çĥŁ": 6272,
      "ĠList": 6273,
      "Ġrefer": 6274,
      "Ġlearning": 6275,
      "ä½³": 6276,
      "izing": 6277,
      "Ġage": 6278,
      "Ð¿ÑĢÐ°Ð²": 6279,
      "ÑıÐ²": 6280,
      "ãĢĤ\"": 6281,
      "å¦ĤæŃ¤": 6282,
      "Reg": 6283,
      "maz": 6284,
      "Ġelement": 6285,
      "rame": 6286,
      "ä½ĵçļĦ": 6287,
      "Ġarray": 6288,
      "ãĥ³ãĥ": 6289,
      "medi": 6290,
      "åĳ¼": 6291,
      "option": 6292,
      "è¿Ŀ": 6293,
      "Ġbank": 6294,
      "éķľ": 6295,
      "eturn": 6296,
      "åĮĸçļĦ": 6297,
      "å³°": 6298,
      "ëĬ": 6299,
      "ĠÐ¼Ð¾Ð¶Ð½Ð¾": 6300,
      "ãĢĤèĢĮ": 6301,
      "Ġinstance": 6302,
      "ky": 6303,
      "just": 6304,
      "ä¸ĭçļĦ": 6305,
      "åıĳå±ķçļĦ": 6306,
      "è§Ħæ¨¡": 6307,
      "é¥Ń": 6308,
      "ti": 6309,
      "pose": 6310,
      "ĠÐ¿ÑĢÐ°Ð²": 6311,
      "Ġit's": 6312,
      "Ð½ÑĭÐ¼Ð¸": 6313,
      "urance": 6314,
      "Ġprevious": 6315,
      "yles": 6316,
      "èĪ¹": 6317,
      "è·ĳ": 6318,
      "Ġmonths": 6319,
      "çľŁçļĦ": 6320,
      "select": 6321,
      "_H": 6322,
      "ĠÎ´": 6323,
      "Ġdeal": 6324,
      "Ġmor": 6325,
      "ï¼ĮéĤ£": 6326,
      "Ġfinancial": 6327,
      "ĠÐ¿Ð¾ÑĤ": 6328,
      "%;Ċ": 6329,
      "å±ŀäºİ": 6330,
      "-al": 6331,
      "åºĨ": 6332,
      "Ġï¼Ī": 6333,
      "ÑĥÐ»ÑĮ": 6334,
      "ãĤĪ": 6335,
      "Ġsecurity": 6336,
      "å®£ä¼ł": 6337,
      "æ±¡": 6338,
      "Ġsw": 6339,
      "Ã¡l": 6340,
      "ĠÐ¿Ð¾Ð²": 6341,
      "_RE": 6342,
      "Ġ[Ċ": 6343,
      "Ġ\"\"": 6344,
      "åĵ¥": 6345,
      "ÐºÐ¾Ð¼": 6346,
      "ÑĤÑĥ": 6347,
      "éĻ¤äºĨ": 6348,
      "anz": 6349,
      "ania": 6350,
      "ĠØ§Ø²": 6351,
      ".de": 6352,
      "umb": 6353,
      "éģį": 6354,
      "ĠOR": 6355,
      "æĭŁ": 6356,
      "èģĶç³»": 6357,
      "è´´": 6358,
      "äº¤æµģ": 6359,
      "æĹ¥æľŁ": 6360,
      "atory": 6361,
      "ĠSet": 6362,
      "åĲĽ": 6363,
      "çļĦå°ı": 6364,
      "Ġsort": 6365,
      "Ø§Ùĩ": 6366,
      "è§ĦèĮĥ": 6367,
      "æľīä¸Ģ": 6368,
      "Ã©g": 6369,
      "Su": 6370,
      "Ġcity": 6371,
      "áº¯": 6372,
      "Ġvarious": 6373,
      "Ġps": 6374,
      "æİ¨è¿Ľ": 6375,
      "Component": 6376,
      "è°ĥæŁ¥": 6377,
      "éĢŁåº¦": 6378,
      "æĿ¨": 6379,
      "ÐµÐ³": 6380,
      "è¶ħè¿ĩ": 6381,
      ".E": 6382,
      "CO": 6383,
      "cia": 6384,
      "light": 6385,
      "ĠĠĠĠĠĠĠĠĊ": 6386,
      "dir": 6387,
      "Str": 6388,
      "çĽ¸å¯¹": 6389,
      "ï¿": 6390,
      "è¡¨è¾¾": 6391,
      "Ġear": 6392,
      "åĨľæĿĳ": 6393,
      "ĠØ§Ø³Øª": 6394,
      "ï¼Įåı¯ä»¥": 6395,
      "ĠJohn": 6396,
      "å²Ľ": 6397,
      "kn": 6398,
      "fully": 6399,
      "Ġmove": 6400,
      "Â·Â·": 6401,
      "Ġusers": 6402,
      "Ġdifficult": 6403,
      "ĠÐ¤": 6404,
      "çī¹å¾ģ": 6405,
      ".length": 6406,
      "Ġfre": 6407,
      ".app": 6408,
      "Ġthough": 6409,
      "ÏģÎ¿": 6410,
      "å®ĭ": 6411,
      "ÑĸÐ´": 6412,
      "verage": 6413,
      "iddle": 6414,
      "ÏĦÎ¿": 6415,
      "Ġsimilar": 6416,
      "ÐºÑĢÐ°": 6417,
      "Ġagre": 6418,
      "ãģ£ãģ¦": 6419,
      "Ġfunc": 6420,
      "Ġaddition": 6421,
      "ä¹ĭéĹ´çļĦ": 6422,
      "Ġpolicy": 6423,
      "ç§ĺ": 6424,
      "Ġren": 6425,
      "ï¼īĊ": 6426,
      "ä½ľèĢħ": 6427,
      "èµĦæľ¬": 6428,
      "æķħäºĭ": 6429,
      "çĿ¡": 6430,
      "Ġstory": 6431,
      "æ¯ıä¸ª": 6432,
      "ÑĨÐ¸Ð¾Ð½": 6433,
      "æĪĺçķ¥": 6434,
      "Ġworks": 6435,
      "Ġneeded": 6436,
      "efore": 6437,
      "Att": 6438,
      "KE": 6439,
      "iert": 6440,
      "Ġyet": 6441,
      "Ġwrite": 6442,
      "åĢº": 6443,
      "æľĢå¤§": 6444,
      "Ġwie": 6445,
      "ç³»åĪĹ": 6446,
      "ĠStates": 6447,
      "udi": 6448,
      "å°Ĭ": 6449,
      "ried": 6450,
      "plit": 6451,
      "äººæīį": 6452,
      "ĠØ¥": 6453,
      "Ġcases": 6454,
      "ĠÎºÎ±Î¹": 6455,
      "ungs": 6456,
      "ĠØ§ÙĦØª": 6457,
      "nes": 6458,
      "ĠØ¨Ø±": 6459,
      "ĠArt": 6460,
      "å¥¥": 6461,
      "åķĨåĵģ": 6462,
      "Ġissue": 6463,
      "ç¼ĺ": 6464,
      "Ġstep": 6465,
      "ĠÙħÛĮ": 6466,
      "Ġaccept": 6467,
      "ening": 6468,
      "Ġselect": 6469,
      "ĠEm": 6470,
      "è¿Ķ": 6471,
      "Ġfig": 6472,
      "Ġmass": 6473,
      "Ġrelationship": 6474,
      "Ġcoll": 6475,
      "ĠNational": 6476,
      "èµĦäº§": 6477,
      "ĠÐ·Ð½Ð°": 6478,
      "aa": 6479,
      "Ġprior": 6480,
      "uster": 6481,
      "á»ĭ": 6482,
      "NA": 6483,
      "ä¿ĿéĻ©": 6484,
      "æĺ¯ä¸Ģç§į": 6485,
      "unch": 6486,
      "Ġsou": 6487,
      "-item": 6488,
      "Ġbuilding": 6489,
      "Ġnach": 6490,
      "adem": 6491,
      "å¸Ń": 6492,
      "ĠÐ¼Ðµ": 6493,
      "assword": 6494,
      "çĽĽ": 6495,
      "Ġrights": 6496,
      "omet": 6497,
      "Ġwriting": 6498,
      "è´¸": 6499,
      "å¾ª": 6500,
      "çªĹ": 6501,
      "New": 6502,
      "ĠBy": 6503,
      "selves": 6504,
      "ged": 6505,
      "ê³": 6506,
      "ging": 6507,
      "ĠGl": 6508,
      "eds": 6509,
      "Ġgetting": 6510,
      "ological": 6511,
      "({": 6512,
      "ãģł": 6513,
      "ÐµÑĢÐ¶": 6514,
      "Ġways": 6515,
      "Ġur": 6516,
      "PC": 6517,
      "æ¡£": 6518,
      "æ»¡è¶³": 6519,
      "MS": 6520,
      "Ġvor": 6521,
      "Ġfiles": 6522,
      "ĠÐ²Ð¾": 6523,
      "Ġfeatures": 6524,
      "åĲī": 6525,
      "Ġuma": 6526,
      "Ã©es": 6527,
      "Ġeffort": 6528,
      "ĠÐ¸Ð³": 6529,
      "Ð¸Ð¼Ð¸": 6530,
      "Ġawait": 6531,
      "Ġextra": 6532,
      "$(": 6533,
      "otal": 6534,
      "Ġidea": 6535,
      ".ex": 6536,
      "ĠAf": 6537,
      "èģĮä¸ļ": 6538,
      "anced": 6539,
      "Ġbox": 6540,
      "ĠI'": 6541,
      "}\\": 6542,
      "hen": 6543,
      "Ġ~": 6544,
      "Ġmis": 6545,
      "format": 6546,
      "So": 6547,
      "apter": 6548,
      "ĠÐ²Ð¸Ð´": 6549,
      "iy": 6550,
      "ban": 6551,
      "Ġcannot": 6552,
      "Âł": 6553,
      "uses": 6554,
      "å¼Ł": 6555,
      "Ġever": 6556,
      "Ġlat": 6557,
      "å±ĭ": 6558,
      "ĠTrans": 6559,
      "éĹŃ": 6560,
      "iler": 6561,
      "ç¥ĸ": 6562,
      "Ġbal": 6563,
      "ï¼Įå¥¹": 6564,
      "æĺİç¡®": 6565,
      "cr": 6566,
      "èĤĿ": 6567,
      "'est": 6568,
      "Ġarticle": 6569,
      "Ġhours": 6570,
      "anch": 6571,
      "Ġpoints": 6572,
      "Ð´Ð¸": 6573,
      "ounds": 6574,
      "èĩªçĶ±": 6575,
      "åĲĮåŃ¦": 6576,
      "width": 6577,
      "å¹³åĿĩ": 6578,
      "Ð¼Ñĥ": 6579,
      "ä¾ĭå¦Ĥ": 6580,
      "ello": 6581,
      "Content": 6582,
      "ĠRep": 6583,
      "é¼ĵ": 6584,
      "Ġpie": 6585,
      "å·¥åħ·": 6586,
      "ĉt": 6587,
      "åĽŀçŃĶ": 6588,
      "cing": 6589,
      "env": 6590,
      "Ġblog": 6591,
      "Ġpropos": 6592,
      "è¿ĩåİ»": 6593,
      "Ġdouble": 6594,
      "ĠÐ²ÑĢÐµÐ¼": 6595,
      "ä¸ĸçºª": 6596,
      "æĳĦ": 6597,
      "æľĢç»Ī": 6598,
      "ga": 6599,
      "ĠGoogle": 6600,
      "åıĸå¾Ĺ": 6601,
      "Ġ::": 6602,
      "Ã¬nh": 6603,
      "Ġuint": 6604,
      "char": 6605,
      "Ġobtain": 6606,
      "çļĦå½±åĵį": 6607,
      "pa": 6608,
      "åĪĽå»º": 6609,
      "âĢĻm": 6610,
      "ports": 6611,
      "æ»ĳ": 6612,
      "amento": 6613,
      "({Ċ": 6614,
      "Ġorganiz": 6615,
      "Ġpack": 6616,
      "Ġsolid": 6617,
      "Ġgrowth": 6618,
      "Ġwir": 6619,
      "ahr": 6620,
      "Ġlower": 6621,
      "æº¶": 6622,
      "ĠData": 6623,
      "åıĬæĹ¶": 6624,
      "åıĳæĮ¥": 6625,
      "Ġcause": 6626,
      "idden": 6627,
      "ÛĮØ¯": 6628,
      "èĢ³": 6629,
      "itory": 6630,
      "Ġserver": 6631,
      "Å¼e": 6632,
      "å²©": 6633,
      "Ġtrack": 6634,
      "åħ¨éĥ¨": 6635,
      "%%": 6636,
      "Ġaffect": 6637,
      "æĶ¶åħ¥": 6638,
      "ĠInter": 6639,
      "éļĶ": 6640,
      "á»¯": 6641,
      "ä¼ĺåĬ¿": 6642,
      "æľªæĿ¥": 6643,
      "è£Ĥ": 6644,
      "Øº": 6645,
      "ename": 6646,
      "ished": 6647,
      "Ġprevent": 6648,
      "é¾Ħ": 6649,
      "ĠÐ´ÑĢÑĥÐ³": 6650,
      "ouch": 6651,
      "Ä±r": 6652,
      "ä¸°å¯Į": 6653,
      "ëĬĶ": 6654,
      "ervices": 6655,
      "Ġill": 6656,
      "æīĢç¤º": 6657,
      "Ġprinc": 6658,
      "Ġfive": 6659,
      "åıĤæķ°": 6660,
      "Ġterms": 6661,
      "CP": 6662,
      "çĺ¤": 6663,
      "ctx": 6664,
      "çĪ¸": 6665,
      "ĠÑĩÐ°": 6666,
      "Ġdecl": 6667,
      "Ġopp": 6668,
      "iá»ģ": 6669,
      "åĲĪçĲĨ": 6670,
      "output": 6671,
      "è¿Ļä¹Ī": 6672,
      "Ġemp": 6673,
      "uly": 6674,
      "èĤ¯": 6675,
      "ä»¥åĲİ": 6676,
      "Ġpued": 6677,
      "çļĦéĩįè¦ģ": 6678,
      "elling": 6679,
      "Ġflow": 6680,
      "Æ°á»£c": 6681,
      "Ġcard": 6682,
      "Ġnone": 6683,
      "å®ļä¹ī": 6684,
      "Ġapproach": 6685,
      "ä¸ĭæĿ¥": 6686,
      "post": 6687,
      "inner": 6688,
      "Ref": 6689,
      "Ġprec": 6690,
      "ocker": 6691,
      "é¥°": 6692,
      "æ¾": 6693,
      "ç¹": 6694,
      "ĠÃ©t": 6695,
      "hib": 6696,
      "Ġfail": 6697,
      "Ġsav": 6698,
      "}ĊĊ//": 6699,
      "ĠÐ§": 6700,
      "ç¤¾åĮº": 6701,
      "çĸ¾çĹħ": 6702,
      "Ġanalysis": 6703,
      "è¶ĭ": 6704,
      "æł·çļĦ": 6705,
      "éľĩ": 6706,
      "è¯¦": 6707,
      "Types": 6708,
      "istance": 6709,
      "éķ¿æľŁ": 6710,
      "ĠĠĠĠĠĠĠĠĠĠĠĠĠĠĠĠĠĠĠĠĠ": 6711,
      "cel": 6712,
      "Ġensure": 6713,
      "ided": 6714,
      "æŃ£ç¡®": 6715,
      "ÐĹ": 6716,
      "Ġing": 6717,
      "å«": 6718,
      "æ²Ł": 6719,
      "ÐµÑĢÐ¸": 6720,
      "åĨĮ": 6721,
      "field": 6722,
      "Sp": 6723,
      "Ġdass": 6724,
      "Ġregard": 6725,
      "åİĭåĬĽ": 6726,
      "åħ¨çĲĥ": 6727,
      "Ġaccording": 6728,
      "Ġä¸Ń": 6729,
      "å·¦åı³": 6730,
      "ï¿½": 6731,
      "ÑĨÐ°": 6732,
      "çº·": 6733,
      "çĻĮ": 6734,
      ".name": 6735,
      "Ġhowever": 6736,
      "æĸ½å·¥": 6737,
      "Ġconse": 6738,
      "Ġdevice": 6739,
      "åįģåĪĨ": 6740,
      "ns": 6741,
      "container": 6742,
      "ÐĽ": 6743,
      "context": 6744,
      ",ä½Ĩæĺ¯": 6745,
      "ĠPres": 6746,
      "ĠÃº": 6747,
      "ĉfor": 6748,
      "anto": 6749,
      "unic": 6750,
      "éĽĦ": 6751,
      "icles": 6752,
      "éĥ½æľī": 6753,
      "Ġdru": 6754,
      "anger": 6755,
      "æµĵ": 6756,
      "æ¹¿": 6757,
      "Link": 6758,
      "ÐºÐ°Ð·": 6759,
      "vi": 6760,
      "lim": 6761,
      "éĽħ": 6762,
      "Ġpred": 6763,
      "Ġcomplete": 6764,
      ">(": 6765,
      "æķ°åŃĹ": 6766,
      "SON": 6767,
      "Acc": 6768,
      "igation": 6769,
      "èĩªèº«": 6770,
      "Ð¸ÑĤÑģÑı": 6771,
      "ĠÐ¿ÑĢÐ¾Ð²": 6772,
      "rypt": 6773,
      "ĠĠĠĠĠĠĠĠĠĠĠĠĠĠĠĠĠĠĠĠĠĠĠĠĠĠĠĠĠĠĠĠĠĠĠ": 6774,
      "istry": 6775,
      ",æīĢä»¥": 6776,
      "pc": 6777,
      "ĠOF": 6778,
      "ï¼ĮæīĢä»¥": 6779,
      "Ġsex": 6780,
      "Ġresources": 6781,
      "su": 6782,
      "æĪĳä»¬çļĦ": 6783,
      "è¡ĮåĬ¨": 6784,
      "å®ļçļĦ": 6785,
      "Ð¾ÑĪ": 6786,
      "æł¸å¿ĥ": 6787,
      "toc": 6788,
      "å°ıæĹ¶": 6789,
      "PO": 6790,
      "Ġprice": 6791,
      "leep": 6792,
      "-pro": 6793,
      "oke": 6794,
      "center": 6795,
      "ï¼ŁâĢĿ": 6796,
      "ÐµÐ½Ð¸Ð¹": 6797,
      "Ġvoor": 6798,
      "Ġclose": 6799,
      "ĠÙĪØ§ÙĦ": 6800,
      "äººç±»": 6801,
      "ï¼Įä½Ĩæĺ¯": 6802,
      "Ġstarted": 6803,
      "Ð»ÐµÐ½Ð¸Ñı": 6804,
      "èĤ¤": 6805,
      "ÑĥÑħ": 6806,
      "æļ´": 6807,
      "Ġheart": 6808,
      "root": 6809,
      "å°¿": 6810,
      "Ġlength": 6811,
      "ĠYork": 6812,
      ".data": 6813,
      "-y": 6814,
      "Ġpaper": 6815,
      "åĨł": 6816,
      "ÑĤÐ¾Ð¼": 6817,
      "oo": 6818,
      "åĲĪåĲĮ": 6819,
      "æľºä¼ļ": 6820,
      "Ġwhole": 6821,
      "ĠVal": 6822,
      "gn": 6823,
      "ffer": 6824,
      "Ġrather": 6825,
      "bit": 6826,
      "èĩªåĬ¨": 6827,
      "ĠEst": 6828,
      "çļĦæĥħåĨµ": 6829,
      "ĠStud": 6830,
      "Ġseen": 6831,
      "éĴĪå¯¹": 6832,
      "osition": 6833,
      "á»±": 6834,
      "empt": 6835,
      "abs": 6836,
      "Ġexpress": 6837,
      "ĠSec": 6838,
      "wa": 6839,
      "oz": 6840,
      "Ġhot": 6841,
      "Ġwords": 6842,
      "Ġcontr": 6843,
      "ĠÐºÐ¾Ð¼Ð¿": 6844,
      "Ġcommand": 6845,
      "ederal": 6846,
      "éĿ¢ç§¯": 6847,
      "_to": 6848,
      "Ġadded": 6849,
      "ç»Łä¸Ģ": 6850,
      "ĠHealth": 6851,
      "ÑĸÐ²": 6852,
      "Manager": 6853,
      "äºĭä»¶": 6854,
      "aint": 6855,
      "};Ċ": 6856,
      "Ġapply": 6857,
      "issions": 6858,
      "ĠÐ³Ð¾ÑĢ": 6859,
      "çģ¯": 6860,
      "ï¼Įè¿ĺ": 6861,
      "ĠGu": 6862,
      "ï¼ĮåĪĻ": 6863,
      "âĳł": 6864,
      "èĢħçļĦ": 6865,
      ")(": 6866,
      "ä¸ĩåħĥ": 6867,
      "Ãµes": 6868,
      "à²": 6869,
      "with": 6870,
      "æĥ¯": 6871,
      "Read": 6872,
      "åĬĽéĩı": 6873,
      "åıªè¦ģ": 6874,
      "ç»Łè®¡": 6875,
      "æĮ¯": 6876,
      "å¿ħè¦ģ": 6877,
      "QL": 6878,
      "Ð¾Ð»Ð¾Ð³": 6879,
      "Ġstandard": 6880,
      "ached": 6881,
      "Ð°ÑĤÑĮÑģÑı": 6882,
      "ĠÃ®n": 6883,
      "é¢ľ": 6884,
      "å¥¶": 6885,
      "jo": 6886,
      "ese": 6887,
      ".y": 6888,
      "åľĪ": 6889,
      "ÑĭÐ¼": 6890,
      "èĥ¡": 6891,
      "Ġcy": 6892,
      "Ġknowledge": 6893,
      "ãĢĤå¦Ĥæŀľ": 6894,
      "ĠÐ´ÐµÐ»": 6895,
      "ãģĳ": 6896,
      "å°±ä¼ļ": 6897,
      "æķı": 6898,
      "Page": 6899,
      "à°": 6900,
      "Ġang": 6901,
      "Ġ},": 6902,
      "æ®Ĭ": 6903,
      "Ġviol": 6904,
      "åħĪçĶŁ": 6905,
      "ĠÙ¾": 6906,
      "çĶµè¯Ŀ": 6907,
      "èĤ¥": 6908,
      "opp": 6909,
      "chan": 6910,
      "ĠNov": 6911,
      "Ġvirt": 6912,
      "typ": 6913,
      "parent": 6914,
      "ĉp": 6915,
      "bin": 6916,
      "Ġot": 6917,
      "fol": 6918,
      "ÂŃ": 6919,
      "anning": 6920,
      "Act": 6921,
      "æ³Ľ": 6922,
      "ä¸ĵå®¶": 6923,
      "-e": 6924,
      "ĠBar": 6925,
      "Ġsaf": 6926,
      "çİ°è±¡": 6927,
      "åĪ©çĽĬ": 6928,
      "Ġcorrect": 6929,
      "ĠPe": 6930,
      "æĻºèĥ½": 6931,
      "astic": 6932,
      "Ġcontract": 6933,
      "Ġtut": 6934,
      "åºĶå½ĵ": 6935,
      "Ġjed": 6936,
      "Ġsoci": 6937,
      "Ġengine": 6938,
      "update": 6939,
      "ÑĥÐ½": 6940,
      "Ġfloat": 6941,
      "æ£Ģæµĭ": 6942,
      "æĮĩæłĩ": 6943,
      "çĥ§": 6944,
      "åİħ": 6945,
      "åħ¬åħ±": 6946,
      "ç¥ŀç»ı": 6947,
      "iten": 6948,
      "è½¯ä»¶": 6949,
      "TP": 6950,
      "èģĶåĲĪ": 6951,
      "éħįç½®": 6952,
      "Ø§Ø³": 6953,
      "Ġespecially": 6954,
      "åıªèĥ½": 6955,
      "ĠÐ¿Ð¾Ð»ÑĥÑĩ": 6956,
      "emp": 6957,
      "Query": 6958,
      "/g": 6959,
      "ischen": 6960,
      "åĪĽéĢł": 6961,
      "æľŁéĹ´": 6962,
      "Ġmedical": 6963,
      "_v": 6964,
      "æĽ¿": 6965,
      "Ġsobre": 6966,
      "ÐµÐ¿": 6967,
      "Ġ};Ċ": 6968,
      "ĠÑĤÐ¾Ð»ÑĮÐºÐ¾": 6969,
      "ä¸ºä»Ģä¹Ī": 6970,
      ",åı¯": 6971,
      "ÏĦÎ·": 6972,
      "cd": 6973,
      "ĠÑĸ": 6974,
      "Ġenter": 6975,
      "ĠÐ¿Ð»": 6976,
      "æİ¨åĬ¨": 6977,
      "éī": 6978,
      "cret": 6979,
      "ÑĢÐ¾Ð¼": 6980,
      "Ġentire": 6981,
      "ĠTra": 6982,
      "æ±ł": 6983,
      "ä¸īä¸ª": 6984,
      "å®ĥä»¬": 6985,
      "ĠPa": 6986,
      "Ġpurch": 6987,
      "åĢį": 6988,
      "pu": 6989,
      "Ġstore": 6990,
      "ä¿¡åı·": 6991,
      "_path": 6992,
      "Ġnu": 6993,
      "ĠSci": 6994,
      "Ġ})Ċ": 6995,
      "åĨħéĥ¨": 6996,
      "è´·": 6997,
      "Ġphot": 6998,
      "çĦ¶èĢĮ": 6999,
      "egin": 7000,
      "Ġsepar": 7001,
      "Ġmil": 7002,
      "uint": 7003,
      "Ġtaking": 7004,
      "æļĹ": 7005,
      "amed": 7006,
      "_size": 7007,
      "éĩįè¦ģçļĦ": 7008,
      "çĶ³è¯·": 7009,
      "olution": 7010,
      "Ġkon": 7011,
      "ÏģÎ±": 7012,
      "å¼ķçĶ¨": 7013,
      "ï¼Įå°Ĩ": 7014,
      "Ġloss": 7015,
      "ĠNone": 7016,
      "pected": 7017,
      "ä¸ºä¸»": 7018,
      "fa": 7019,
      ",è¿ĺ": 7020,
      "-based": 7021,
      "Ġġ": 7022,
      "){Ċ": 7023,
      "ÑģÐ°": 7024,
      "akt": 7025,
      "ĠÐ¾ÑĢ": 7026,
      "Ġni": 7027,
      "æĬ½": 7028,
      "æ®ĭ": 7029,
      "Ġinterface": 7030,
      "èħ¹": 7031,
      "aur": 7032,
      "mas": 7033,
      "Ġlen": 7034,
      "æ²¿": 7035,
      "Ġcame": 7036,
      "hand": 7037,
      "Ġ|Ċ": 7038,
      "ãĢĤåĽłæŃ¤": 7039,
      "æ¢ģ": 7040,
      "Ġhandle": 7041,
      "åŃĻ": 7042,
      ".Get": 7043,
      "ÑģÐºÐ¾Ð³Ð¾": 7044,
      "cm": 7045,
      "åĨ¬": 7046,
      "Ġnecessary": 7047,
      "ĠJe": 7048,
      "-B": 7049,
      "Ġsont": 7050,
      "One": 7051,
      "ÅĽci": 7052,
      "ĠYour": 7053,
      "ÑĤÐ¾Ð±Ñĭ": 7054,
      "********************************": 7055,
      "Ġtim": 7056,
      "æ°ı": 7057,
      "Ġevents": 7058,
      "Ġjava": 7059,
      "á»Ļt": 7060,
      "Ġbelieve": 7061,
      "OC": 7062,
      "ened": 7063,
      "TH": 7064,
      "éŁ³ä¹Ĳ": 7065,
      "/t": 7066,
      "æī¬": 7067,
      "PL": 7068,
      "Ġwird": 7069,
      "Ġplant": 7070,
      "erial": 7071,
      "ç®±": 7072,
      "Ġbehav": 7073,
      "joy": 7074,
      "ĠÐ¶Ðµ": 7075,
      "ãĥ³ãĤ": 7076,
      "ĠÑģÐ¾Ð²": 7077,
      "Ġeval": 7078,
      "Ġgroups": 7079,
      "ÈĻ": 7080,
      "æĿ¥è¶Ĭ": 7081,
      "ĠJan": 7082,
      "ĠCons": 7083,
      "è§Ĥå¯Ł": 7084,
      "iner": 7085,
      "å¯Ĵ": 7086,
      "Ġanswer": 7087,
      "Token": 7088,
      "ä¸įåĪ°": 7089,
      "ÑģÐ¸": 7090,
      "ker": 7091,
      "ÑĥÑĪ": 7092,
      "ãĥ¬": 7093,
      "Ġprz": 7094,
      "Ø±Ø¯": 7095,
      "response": 7096,
      "kit": 7097,
      "Ġtaken": 7098,
      "Ġformat": 7099,
      "åľŁåľ°": 7100,
      "Ġstudent": 7101,
      "RA": 7102,
      "SC": 7103,
      "ln": 7104,
      "çī©è´¨": 7105,
      "å¹¶ä¸į": 7106,
      "ĠÑģÐ¾Ð±": 7107,
      "Ġadditional": 7108,
      ",å¤§": 7109,
      "ĠWest": 7110,
      "å§Ĳ": 7111,
      "Ġtele": 7112,
      "part": 7113,
      "Ġlevels": 7114,
      "ali": 7115,
      "åĩłä¸ª": 7116,
      "é¸¡": 7117,
      "ç§¦": 7118,
      "Ð»Ð°Ð²": 7119,
      "å¹ķ": 7120,
      "åĪ¸": 7121,
      "pm": 7122,
      "ugin": 7123,
      "æ¯«": 7124,
      "ÑģÐºÐ¸Ð¹": 7125,
      "è¶ĬæĿ¥è¶Ĭ": 7126,
      "Ġrecogn": 7127,
      "çİ°åľº": 7128,
      "umer": 7129,
      "ï¼ĮåıĪ": 7130,
      "eller": 7131,
      "Ġhor": 7132,
      "çĶ¨çļĦ": 7133,
      "iat": 7134,
      "Ġtransform": 7135,
      "Number": 7136,
      "åģļå¥½": 7137,
      "aux": 7138,
      "doc": 7139,
      "Ġobserv": 7140,
      "çĽĲ": 7141,
      "é¡¿": 7142,
      "agen": 7143,
      "ÏĦÎµ": 7144,
      "alls": 7145,
      "æģ©": 7146,
      "æķ¢": 7147,
      "éĩĮçļĦ": 7148,
      "èĦĤ": 7149,
      "åĨ°": 7150,
      "åĪ¶éĢł": 7151,
      "æ·»": 7152,
      "éģ¿åħį": 7153,
      "-st": 7154,
      "(:": 7155,
      "å¦Īå¦Ī": 7156,
      "äºĮåįģ": 7157,
      "Ġok": 7158,
      "æıĴ": 7159,
      "æµª": 7160,
      "åĪĨå¸ĥ": 7161,
      "Ġsection": 7162,
      "Ġ\"${": 7163,
      "ĠIl": 7164,
      "cast": 7165,
      "Ġanim": 7166,
      "Ġtil": 7167,
      "ĠÐ·Ð°Ð¿": 7168,
      "åı¬": 7169,
      "Ġwhite": 7170,
      "ĠØ§ÙĦØ£": 7171,
      "á»¥": 7172,
      "mar": 7173,
      "åĳĺå·¥": 7174,
      "Ġroom": 7175,
      "EO": 7176,
      "ÏĢÎ¿": 7177,
      "Ġmu": 7178,
      "ä¸´åºĬ": 7179,
      "ï¼Įå¤§": 7180,
      "isation": 7181,
      "Ð¾Ð³ÑĢÐ°": 7182,
      "';ĊĊ": 7183,
      "Ġmethods": 7184,
      "ees": 7185,
      "æĭ¥æľī": 7186,
      "åıĳå¸ĥ": 7187,
      "Ġq": 7188,
      "_in": 7189,
      "Ġminutes": 7190,
      "ciÃ³n": 7191,
      "Options": 7192,
      "eline": 7193,
      "ĠÑĥÑģÑĤ": 7194,
      "Ø§Ø¹": 7195,
      "Ġgrad": 7196,
      "mon": 7197,
      "actions": 7198,
      "adata": 7199,
      "opyright": 7200,
      "ĉĊ": 7201,
      "ÅĦ": 7202,
      "æŃ£åľ¨": 7203,
      "ÑıÐ·": 7204,
      "çī¹èī²": 7205,
      "Ġhistor": 7206,
      "åĪĨä¸º": 7207,
      "Ġplatform": 7208,
      "åĶ¯": 7209,
      "_list": 7210,
      "SP": 7211,
      "ILE": 7212,
      "\"/": 7213,
      "ĠWorld": 7214,
      "å®ĮåĸĦ": 7215,
      "ç¹ģ": 7216,
      "Ġproduction": 7217,
      "_st": 7218,
      "é«ĺçļĦ": 7219,
      "æ¨ª": 7220,
      "Ġrecent": 7221,
      "EC": 7222,
      "Ð¾Ð»ÑĮÐ·Ð¾Ð²": 7223,
      "çĶµå½±": 7224,
      "Ġnational": 7225,
      "};ĊĊ": 7226,
      "abe": 7227,
      "ĠID": 7228,
      "ani": 7229,
      "Ġitems": 7230,
      "aciones": 7231,
      "())Ċ": 7232,
      "æľīäºĽ": 7233,
      "ãĢĭï¼Į": 7234,
      "idget": 7235,
      "pond": 7236,
      "Ġequip": 7237,
      "ãĥĹ": 7238,
      "éī´": 7239,
      "Point": 7240,
      "éĨĴ": 7241,
      "ĠÐ¸Ñħ": 7242,
      "Ð½Ñĸ": 7243,
      "ĠÄĳÆ°á»£c": 7244,
      "Ġtw": 7245,
      "Ð½Ð¸ÐºÐ°": 7246,
      "ĠÐ¼Ñĭ": 7247,
      "çµ": 7248,
      "inen": 7249,
      "ĠpÅĻ": 7250,
      "éĺħè¯»": 7251,
      "Ġsolution": 7252,
      "ÑĢÐµÐ±": 7253,
      "Ø§Ø²": 7254,
      "Ð»Ð¸Ñĩ": 7255,
      "Ð¸Ð±": 7256,
      "Ġtod": 7257,
      "è±Ĩ": 7258,
      "ufact": 7259,
      "imo": 7260,
      "å¼ĥ": 7261,
      "æ§": 7262,
      "ä¸ĢçĤ¹": 7263,
      "åĲ´": 7264,
      "è®°å½ķ": 7265,
      "Ġbad": 7266,
      "_ST": 7267,
      "pub": 7268,
      "ĠcÃ¡c": 7269,
      "oved": 7270,
      "izer": 7271,
      "ä¸įå¾Ĺ": 7272,
      "Â»,": 7273,
      "Ġjak": 7274,
      "å°¤åħ¶": 7275,
      "Ġrelated": 7276,
      "ä»¥æĿ¥": 7277,
      "\").": 7278,
      "ĠEs": 7279,
      "duc": 7280,
      "aÃ§Ã£o": 7281,
      "ORT": 7282,
      "kg": 7283,
      "ìĦ": 7284,
      "æīĭæľº": 7285,
      "Ġincludes": 7286,
      "aker": 7287,
      "Ġpractice": 7288,
      "params": 7289,
      "ioni": 7290,
      "æĥł": 7291,
      "æ¤įçī©": 7292,
      "amily": 7293,
      "Ġintrodu": 7294,
      "Ġadminist": 7295,
      "MP": 7296,
      "Ġbien": 7297,
      "ä¾µ": 7298,
      "Ġweight": 7299,
      "IO": 7300,
      "çģŃ": 7301,
      "è¯ļ": 7302,
      "Ð½Ð¸Ñı": 7303,
      "Box": 7304,
      "iger": 7305,
      "iting": 7306,
      "vider": 7307,
      "Ġsy": 7308,
      "çĪĨ": 7309,
      "æĪĲäºĨ": 7310,
      "åı¦å¤ĸ": 7311,
      "_IN": 7312,
      "åºĦ": 7313,
      "Ġthrow": 7314,
      "xx": 7315,
      "uns": 7316,
      "Ð°Ð±": 7317,
      "å¡Ķ": 7318,
      "cy": 7319,
      "hal": 7320,
      "jet": 7321,
      "Ġnews": 7322,
      ".</": 7323,
      "-r": 7324,
      "_L": 7325,
      "å¡ŀ": 7326,
      "ĠâĢ¦": 7327,
      "æ¬²": 7328,
      "<T": 7329,
      "size": 7330,
      "ĉpublic": 7331,
      "author": 7332,
      "\\\\": 7333,
      "ãģĿ": 7334,
      "ĠÏĦÎ¿Ïħ": 7335,
      "inate": 7336,
      "åĬŀæ³ķ": 7337,
      "Ġtook": 7338,
      "èĴĻ": 7339,
      "lied": 7340,
      "........": 7341,
      "ï¼ĮåĽłä¸º": 7342,
      "ĠUs": 7343,
      "ĠÑģÐº": 7344,
      "Ġclos": 7345,
      "DB": 7346,
      "Ġauth": 7347,
      "æ¼«": 7348,
      "child": 7349,
      "uge": 7350,
      "ç§°ä¸º": 7351,
      "Ġcomplex": 7352,
      "react": 7353,
      "åķĨä¸ļ": 7354,
      "ĠAcc": 7355,
      "ocket": 7356,
      "Ġproced": 7357,
      "æĮĳ": 7358,
      "ä¹³": 7359,
      "éĢļå¸¸": 7360,
      "Click": 7361,
      "éĽĨä¸Ń": 7362,
      "ï¼īãĢĤ": 7363,
      "ĠÐ¸Ð½ÑĤ": 7364,
      "ĠStr": 7365,
      "Ġsimply": 7366,
      "å²Ĺ": 7367,
      "Ġwalk": 7368,
      "ĠSchool": 7369,
      "çĽĳçĿ£": 7370,
      "URL": 7371,
      "Ġpriv": 7372,
      "andid": 7373,
      "ï¼Įå¦Ĥæŀľ": 7374,
      "å½»": 7375,
      "Ġblack": 7376,
      "Ð¾Ð»Ð¸": 7377,
      "Ã©c": 7378,
      "Ġunique": 7379,
      "Ġcolumn": 7380,
      "Ġ$(": 7381,
      "Ä±nd": 7382,
      "Ab": 7383,
      "å½ĵåīį": 7384,
      "çĽ®å½ķ": 7385,
      "åĸĿ": 7386,
      "ead": 7387,
      "Start": 7388,
      "éĩĩåıĸ": 7389,
      "èĵĿ": 7390,
      "ä¸»ä»»": 7391,
      "Ġpu": 7392,
      "ĠAust": 7393,
      "-top": 7394,
      "ĠÐ½Ð°Ñĩ": 7395,
      "éĿ©åĳ½": 7396,
      "æķĮ": 7397,
      "Ð¾ÑĤÐ¾Ð²": 7398,
      "Ġarch": 7399,
      "å¢Ļ": 7400,
      "ç§Ł": 7401,
      "FA": 7402,
      "Ġbud": 7403,
      "ĠRec": 7404,
      "Ġfra": 7405,
      "è¾ħ": 7406,
      "ä»ĸä»¬çļĦ": 7407,
      "ãĤ·": 7408,
      "æ´ŀ": 7409,
      "ĠCON": 7410,
      "Us": 7411,
      "åĬĽçļĦ": 7412,
      "actory": 7413,
      "æ´ģ": 7414,
      "æ£®": 7415,
      "Ġabsol": 7416,
      "ÑĭÐ²Ð°": 7417,
      "Ġjest": 7418,
      "oman": 7419,
      "{\\": 7420,
      "Ġwy": 7421,
      "nav": 7422,
      "Ġlegal": 7423,
      "iene": 7424,
      "Ð²Ðµ": 7425,
      "äºİæĺ¯": 7426,
      "ç¬¦åĲĪ": 7427,
      "Ġsomeone": 7428,
      "ÑĶ": 7429,
      "pload": 7430,
      "ç»ĺ": 7431,
      "auf": 7432,
      "äººåı£": 7433,
      "Ġseries": 7434,
      "antes": 7435,
      "á»©": 7436,
      "ìĹĲ": 7437,
      "Ð½Ð¸Ðµ": 7438,
      "}čĊ": 7439,
      "aced": 7440,
      "Ġreceive": 7441,
      "å¤įæĿĤ": 7442,
      "æĻ®éĢļ": 7443,
      "ĠRed": 7444,
      "Ġhalf": 7445,
      "ffect": 7446,
      "Ġthird": 7447,
      ".v": 7448,
      "è¿·": 7449,
      "Ġcustomers": 7450,
      "ê°": 7451,
      "èļ": 7452,
      "Ġfront": 7453,
      "èĤł": 7454,
      "rt": 7455,
      "åĶ±": 7456,
      "Ġmatter": 7457,
      "ĠEd": 7458,
      "illa": 7459,
      "æł¹æľ¬": 7460,
      "è£ģ": 7461,
      "å£ģ": 7462,
      "éĤ£ä¸ª": 7463,
      "æľºåħ³": 7464,
      "math": 7465,
      "ØªØ±": 7466,
      "åĳ½ä»¤": 7467,
      "Ġfi": 7468,
      "åĪĨéĴŁ": 7469,
      "hing": 7470,
      "å¢ŀå¼º": 7471,
      "é²ģ": 7472,
      "Pre": 7473,
      "Ã©d": 7474,
      "Ġrunning": 7475,
      "Ġextends": 7476,
      "èĥ¶": 7477,
      "âĶ": 7478,
      "nder": 7479,
      "-C": 7480,
      "ĠÏĦÎ¿": 7481,
      "Ġdecision": 7482,
      "Controller": 7483,
      "Ð¸Ð»Ð°": 7484,
      "').": 7485,
      "Ġlocation": 7486,
      "mos": 7487,
      "ĠÐ±ÑĥÐ´ÐµÑĤ": 7488,
      "Ġdim": 7489,
      "template": 7490,
      "ÏĥÎ·": 7491,
      "Ġcirc": 7492,
      "æµĭè¯ķ": 7493,
      "Fl": 7494,
      "aten": 7495,
      "entes": 7496,
      "ĠÑģÑĢÐµÐ´": 7497,
      "éĢĴ": 7498,
      "è·³": 7499,
      "æĸĩåŃ¦": 7500,
      "Ġeinen": 7501,
      "ĠfÃ¶r": 7502,
      "font": 7503,
      "èµµ": 7504,
      "Ð°ÑĢÑĤ": 7505,
      "Ġpet": 7506,
      "ä¹¦è®°": 7507,
      ".st": 7508,
      "Ġbes": 7509,
      "Change": 7510,
      "è¯ķéªĮ": 7511,
      "Ġinstit": 7512,
      "host": 7513,
      "ÏīÎ½": 7514,
      "rar": 7515,
      "vest": 7516,
      "Ġih": 7517,
      "Ġdetails": 7518,
      "DA": 7519,
      "Ġupon": 7520,
      "çģ¾": 7521,
      "æ½ľ": 7522,
      "Ġalign": 7523,
      "ĠDef": 7524,
      "æ©": 7525,
      "ĠÐĿÐ°": 7526,
      ",è¦ģ": 7527,
      "Det": 7528,
      "ĠÑįÐº": 7529,
      "Ġ'./": 7530,
      "ä»Ļ": 7531,
      "uto": 7532,
      "Ent": 7533,
      "Ġscreen": 7534,
      "ç»ª": 7535,
      "Ġtemper": 7536,
      "System": 7537,
      "istics": 7538,
      "Ð°Ð½Ð´": 7539,
      "alle": 7540,
      "Ġclick": 7541,
      "YPE": 7542,
      "Ġusually": 7543,
      "ĠÐ»ÑİÐ±": 7544,
      "ĠÑģÑĤÑĢÐ°": 7545,
      "ijn": 7546,
      "ĠSm": 7547,
      "èĤº": 7548,
      "Ġconsole": 7549,
      "())": 7550,
      "çĬ¯ç½ª": 7551,
      "Ġleaders": 7552,
      "acebook": 7553,
      "ÐµÐ¼Ñĥ": 7554,
      "ÐµÑģÑĮ": 7555,
      "Ġsen": 7556,
      "ĠkÃ¶n": 7557,
      ",åı¯ä»¥": 7558,
      "ĠkhÃ´ng": 7559,
      "ìł": 7560,
      "åĳĬè¯ī": 7561,
      "inition": 7562,
      "Ġprograms": 7563,
      "å¦Ĥä¸ĭ": 7564,
      "Ä±l": 7565,
      "oring": 7566,
      "Ġframe": 7567,
      "Ġregul": 7568,
      "ische": 7569,
      "Ġmas": 7570,
      "è¿Ļæĺ¯": 7571,
      "ĠCO": 7572,
      "Ġmultiple": 7573,
      "auth": 7574,
      "etch": 7575,
      "edia": 7576,
      "ĠSee": 7577,
      "äºĭä¸ļ": 7578,
      "column": 7579,
      "å®¶éķ¿": 7580,
      "ç²Ĵ": 7581,
      "Ġkan": 7582,
      "Call": 7583,
      "Ġfilm": 7584,
      "inn": 7585,
      "ipal": 7586,
      "åĦ¿ç«¥": 7587,
      "enses": 7588,
      "Ġcountries": 7589,
      "ï¼ĮèĢĮä¸Ķ": 7590,
      "Handler": 7591,
      "ategy": 7592,
      "Î²": 7593,
      "ìŀ": 7594,
      "weight": 7595,
      "Ġcommit": 7596,
      "Ġcomment": 7597,
      "Ġcontribut": 7598,
      "ĠĠĠĠĠĠĠĠĠĠĠĠĠĠ": 7599,
      "Ġwait": 7600,
      "ĠAfter": 7601,
      "],Ċ": 7602,
      "æııè¿°": 7603,
      "ĠSim": 7604,
      "bra": 7605,
      "âĢ¦Ċ": 7606,
      "Ġeverything": 7607,
      ".åľ¨": 7608,
      "ĠAc": 7609,
      "Ġdoc": 7610,
      "è°·": 7611,
      "eler": 7612,
      "ĠMod": 7613,
      "Ġlonger": 7614,
      "Per": 7615,
      "çĭ¬ç«ĭ": 7616,
      "level": 7617,
      "æĿ¥èĩª": 7618,
      "Ġkann": 7619,
      "ald": 7620,
      "Ġmember": 7621,
      "sem": 7622,
      "Ġsubst": 7623,
      "ĠÎ½": 7624,
      "Ġnur": 7625,
      "Ø§Ø¡": 7626,
      "Line": 7627,
      "vey": 7628,
      "å¤ļæķ°": 7629,
      "lear": 7630,
      "ÐµÐ½Ð°": 7631,
      "Ġalmost": 7632,
      "ãĥķ": 7633,
      "ä½łä»¬": 7634,
      "Ġprofessional": 7635,
      "æ¶¨": 7636,
      "Ġavoid": 7637,
      "åı¦ä¸Ģ": 7638,
      "çĦ¦": 7639,
      "Ġregion": 7640,
      "Ġinflu": 7641,
      "Ġrender": 7642,
      "åªĴä½ĵ": 7643,
      "åŃĲçļĦ": 7644,
      "Ġstaff": 7645,
      "æ¦Ĥå¿µ": 7646,
      "pid": 7647,
      "âĳ¡": 7648,
      "(new": 7649,
      "æĸ°éĹ»": 7650,
      "Ġä¸Ģ": 7651,
      "Ġdeath": 7652,
      "/j": 7653,
      "Ġactual": 7654,
      "å¿«éĢŁ": 7655,
      "Ġfast": 7656,
      "~~": 7657,
      "çĪ¶æ¯į": 7658,
      "Ġreceived": 7659,
      "Ġci": 7660,
      "(r": 7661,
      "åĹ": 7662,
      "Î¯Î±": 7663,
      "æ¯ıå¤©": 7664,
      "è¾Ĩ": 7665,
      "èĲ½å®ŀ": 7666,
      "Ġoil": 7667,
      "Gener": 7668,
      "Î¼Î±": 7669,
      "éŁ©": 7670,
      "Ġmiss": 7671,
      "è¿¹": 7672,
      "ãģĵãģ¨": 7673,
      "ceed": 7674,
      "å¹²éĥ¨": 7675,
      "ropri": 7676,
      "ĠCenter": 7677,
      "ç»ıå¸¸": 7678,
      "å¿Ĩ": 7679,
      "Ð¾Ð»ÐµÐµ": 7680,
      "Ġful": 7681,
      "æ¸©åº¦": 7682,
      "æ¹¾": 7683,
      "Ġfrequ": 7684,
      "?:": 7685,
      "Ġnom": 7686,
      "æĸĩç«ł": 7687,
      "çĴ": 7688,
      "Ġsn": 7689,
      "Ġdigital": 7690,
      "Ġstructure": 7691,
      "ao": 7692,
      "conf": 7693,
      "ÑĩÐ¸ÑĤ": 7694,
      "Check": 7695,
      "Ass": 7696,
      "Ġregular": 7697,
      "Ġcredit": 7698,
      "ĠnÃ£o": 7699,
      "summary": 7700,
      "room": 7701,
      "options": 7702,
      "ĠForm": 7703,
      "alled": 7704,
      "enden": 7705,
      "ANT": 7706,
      "ä¼Ĭ": 7707,
      "çĶµè§Ĩ": 7708,
      "-sh": 7709,
      "çī¹æ®Ĭ": 7710,
      "Ġability": 7711,
      "æ¢°": 7712,
      "Ġå¹´": 7713,
      "å·§": 7714,
      "udo": 7715,
      "Ġconduct": 7716,
      "Ġperfect": 7717,
      "reen": 7718,
      "ãĤģ": 7719,
      "å¿ĺ": 7720,
      "éĥ½ä¼ļ": 7721,
      "Comp": 7722,
      "Ġeffective": 7723,
      "Ġallows": 7724,
      "Ġofficial": 7725,
      "Ġactivities": 7726,
      "Ġground": 7727,
      "verse": 7728,
      "Ø±ÙĪ": 7729,
      "Version": 7730,
      "reet": 7731,
      "Ġya": 7732,
      "Ġgar": 7733,
      "Ġenjoy": 7734,
      "ĠaÃ±": 7735,
      "ĠÐ¿Ð¾Ð·": 7736,
      "lier": 7737,
      "uate": 7738,
      "ola": 7739,
      "ĉb": 7740,
      "éŀ": 7741,
      "atur": 7742,
      "Property": 7743,
      "rage": 7744,
      "Ġimprove": 7745,
      "ãģ©": 7746,
      "Ãły": 7747,
      "è¿ŀæİ¥": 7748,
      "ä¹Łæľī": 7749,
      "Ġfamil": 7750,
      "è¿ħ": 7751,
      "Ġinstead": 7752,
      "erve": 7753,
      ".md": 7754,
      "ä¼¦": 7755,
      "IZ": 7756,
      "click": 7757,
      "ä¹ĺ": 7758,
      "èĢĲ": 7759,
      "ĠAng": 7760,
      "ĠHer": 7761,
      "Ġbed": 7762,
      "Ġbenefits": 7763,
      "çļĦé«ĺ": 7764,
      "Ġfavor": 7765,
      "Server": 7766,
      "Ġcalcul": 7767,
      "och": 7768,
      "æĹłè®º": 7769,
      ",å°Ĩ": 7770,
      "Output": 7771,
      "å§Ķåĳĺä¼ļ": 7772,
      "æķ°éĩı": 7773,
      "ĠWork": 7774,
      "èĦı": 7775,
      "aily": 7776,
      "Ġactive": 7777,
      "_file": 7778,
      "å®īè£ħ": 7779,
      "Action": 7780,
      "é£Łåĵģ": 7781,
      "UP": 7782,
      "Stream": 7783,
      "Ġze": 7784,
      "grad": 7785,
      "åŁºéĩĳ": 7786,
      "Ġmusic": 7787,
      "sz": 7788,
      "Ð¾Ð²Ð°": 7789,
      "term": 7790,
      "å¹´æĿ¥": 7791,
      "pped": 7792,
      "inder": 7793,
      "è¯º": 7794,
      "Ġhol": 7795,
      "End": 7796,
      "idade": 7797,
      "iance": 7798,
      "Base": 7799,
      "Ð¼Ð¾Ð¶": 7800,
      "Ġded": 7801,
      "á»Ł": 7802,
      "æķ´ä½ĵ": 7803,
      "Ġmode": 7804,
      "///": 7805,
      "Ġnear": 7806,
      "çĤ¼": 7807,
      "ĠWindows": 7808,
      "Ġcells": 7809,
      "è®¨è®º": 7810,
      "ĠRE": 7811,
      "ãĤ³": 7812,
      "Ð¤": 7813,
      "ismo": 7814,
      "åıĬåħ¶": 7815,
      "Ġassociated": 7816,
      "å°¾": 7817,
      "Ġincluded": 7818,
      "ç»ĵæĿŁ": 7819,
      "è´¯": 7820,
      "Ð¿Ð¾Ð»": 7821,
      "DF": 7822,
      "vas": 7823,
      "ĠOff": 7824,
      "Ġfeature": 7825,
      "ä¼ĺç§Ģ": 7826,
      "cons": 7827,
      "Ġtold": 7828,
      "Ġplease": 7829,
      "Ġtool": 7830,
      "Source": 7831,
      "ãĥŃ": 7832,
      "pg": 7833,
      "Ġtransl": 7834,
      "è¿Ľè¡ĮäºĨ": 7835,
      "Ġanything": 7836,
      "æĲŃ": 7837,
      "/v": 7838,
      "Ġwr": 7839,
      "Ġitself": 7840,
      "see": 7841,
      "æ³¥": 7842,
      "dom": 7843,
      "ãĢĤâĢľ": 7844,
      "ran": 7845,
      "lam": 7846,
      "iva": 7847,
      "Ġdescription": 7848,
      "Ġsend": 7849,
      "æĳ©": 7850,
      "çĽŁ": 7851,
      "Ġsix": 7852,
      "mut": 7853,
      "è®¾æĸ½": 7854,
      "è¯ģæĺİ": 7855,
      "Ð¼ÐµÑĤ": 7856,
      "çİ°å®ŀ": 7857,
      "ambi": 7858,
      "Ð¸ÑĢÐ°": 7859,
      "å§ĵ": 7860,
      "Ġskills": 7861,
      "ÐµÐ¶": 7862,
      "Ġinternational": 7863,
      ".io": 7864,
      "Ġdin": 7865,
      "å°ıè¯´": 7866,
      "Ġconcept": 7867,
      "ĉvar": 7868,
      "Ð¾ÑģÑĮ": 7869,
      "fs": 7870,
      "rie": 7871,
      "æĸĩæĺİ": 7872,
      "Ġwel": 7873,
      "èģĶç½ĳ": 7874,
      "ĠÑĥÐ´": 7875,
      "Ġzum": 7876,
      "ATH": 7877,
      "rib": 7878,
      "Ġpopular": 7879,
      "ï¼ŁâĢĿĊ": 7880,
      "ellen": 7881,
      "Ġdesigned": 7882,
      "á»ĩ": 7883,
      "ç»ķ": 7884,
      "åºĶçļĦ": 7885,
      "Ġsil": 7886,
      "Ġeiner": 7887,
      "ĠOur": 7888,
      "ĠCount": 7889,
      "exp": 7890,
      "Ġtro": 7891,
      "dated": 7892,
      "coming": 7893,
      "æĿ¥çľĭ": 7894,
      "ĠÐ¾Ñĩ": 7895,
      "åľ°åĿĢ": 7896,
      "åīĳ": 7897,
      "å·®å¼Ĥ": 7898,
      "Ġactivity": 7899,
      "ĠChina": 7900,
      "è§Ī": 7901,
      "Ġjud": 7902,
      "æģ¢": 7903,
      "ä¹ı": 7904,
      "è®¡ç®Ĺæľº": 7905,
      "ĠCity": 7906,
      ",åĽłä¸º": 7907,
      "ala": 7908,
      "ĠÐºÐ¾ÑĢ": 7909,
      "Ġexact": 7910,
      "ĠØ§ÙĦØ¹": 7911,
      "Ġnature": 7912,
      "ÙħØ§": 7913,
      "æī¶": 7914,
      "usiness": 7915,
      "å¤ļå°ĳ": 7916,
      "IA": 7917,
      "æĮĤ": 7918,
      "ono": 7919,
      "æļĸ": 7920,
      "åģ¿": 7921,
      "ĠÐºÑĢÐ°": 7922,
      "Ġnav": 7923,
      "-align": 7924,
      "å¸¦æĿ¥": 7925,
      "XX": 7926,
      "Ġproper": 7927,
      "Ġforward": 7928,
      "ï¼ģâĢĿĊ": 7929,
      "_R": 7930,
      "ï¼Įè¦ģ": 7931,
      "Ġroot": 7932,
      "Ġstay": 7933,
      "Ġmodern": 7934,
      "Ġcosts": 7935,
      "æ·±åħ¥": 7936,
      "ĠAnt": 7937,
      "æĢ§èĥ½": 7938,
      "OK": 7939,
      "Ġsense": 7940,
      "/n": 7941,
      "ÐºÐ¾Ð¹": 7942,
      "åĪ¶ä½ľ": 7943,
      ".$": 7944,
      "vention": 7945,
      "Ġaltern": 7946,
      "Te": 7947,
      "ìĿĦ": 7948,
      "control": 7949,
      "ieren": 7950,
      "å¼ĢæĶ¾": 7951,
      "æĪĲéķ¿": 7952,
      "Ġprep": 7953,
      "ä½Ĩæĺ¯": 7954,
      "itÃł": 7955,
      "////////////////": 7956,
      "Â°": 7957,
      "SD": 7958,
      "Ġsave": 7959,
      "ming": 7960,
      "åĨľæ°ĳ": 7961,
      ",å¦Ĥæŀľ": 7962,
      "rapper": 7963,
      "è´¦": 7964,
      "å¾Ģå¾Ģ": 7965,
      "å¥ĭ": 7966,
      "ãĤĦ": 7967,
      "Ġshows": 7968,
      "ä¿Ĺ": 7969,
      "èĢĹ": 7970,
      "ĠÑĤÐ°ÐºÐ¶Ðµ": 7971,
      "æķĪçİĩ": 7972,
      "Ã¡r": 7973,
      "ä½ĵèĤ²": 7974,
      "Ġeconomic": 7975,
      ".push": 7976,
      "ä¸ĭéĻį": 7977,
      "ÅĤa": 7978,
      "ĠSan": 7979,
      "Ġaux": 7980,
      "ev": 7981,
      "è§£éĩĬ": 7982,
      "ĠProgram": 7983,
      "vision": 7984,
      "ä¸¹": 7985,
      "Ġconstruct": 7986,
      "obj": 7987,
      "ettings": 7988,
      "Ġdisease": 7989,
      "Ġsec": 7990,
      "Ð°Ð½Ð¸Ð¸": 7991,
      "ĠRob": 7992,
      "Ġconsist": 7993,
      "_key": 7994,
      "HO": 7995,
      "Ġcomponent": 7996,
      "è´Ŀ": 7997,
      "request": 7998,
      "ĠÄĲ": 7999,
      "ĠÅŁ": 8000,
      "ami": 8001,
      "Ġcollect": 8002,
      "chema": 8003,
      "åĲİæĿ¥": 8004,
      "adow": 8005,
      "æ½®": 8006,
      "åŁºäºİ": 8007,
      "Ġdraw": 8008,
      "Ġstates": 8009,
      "irit": 8010,
      "-bottom": 8011,
      "Ġliving": 8012,
      "èĢĥè¯ķ": 8013,
      "Ġcontinu": 8014,
      "æ´¥": 8015,
      "bor": 8016,
      "Ġ((": 8017,
      "Ġmaintain": 8018,
      "quence": 8019,
      "Ġmill": 8020,
      "rio": 8021,
      "Ġnight": 8022,
      "ĠReact": 8023,
      "Ð¾Ð²Ð¾ÑĢ": 8024,
      "Ġcondition": 8025,
      "cem": 8026,
      "ABLE": 8027,
      "åħ¼": 8028,
      "ĠST": 8029,
      "æ·¡": 8030,
      "æĪª": 8031,
      "éĿ¢å¯¹": 8032,
      "ĠJust": 8033,
      "Ø¸": 8034,
      "cil": 8035,
      "Instance": 8036,
      "ĠCour": 8037,
      "Ġago": 8038,
      "gest": 8039,
      "íķĺ": 8040,
      "éĤ®": 8041,
      "ä¸ģ": 8042,
      "Ġchalleng": 8043,
      "áº·": 8044,
      "æİĮæı¡": 8045,
      "Ġchoose": 8046,
      "ball": 8047,
      "çļĦå·¥ä½ľ": 8048,
      "Ð¸Ñĩ": 8049,
      "Ġtools": 8050,
      "Web": 8051,
      "èĻ«": 8052,
      "rest": 8053,
      "Ã¼ck": 8054,
      "aria": 8055,
      "ĉĉĉĉĉĉĉĉ": 8056,
      "_G": 8057,
      "Ġtakes": 8058,
      "æĬµ": 8059,
      "Ċ//": 8060,
      "åĪĢ": 8061,
      "ifest": 8062,
      "èį¯çī©": 8063,
      "icas": 8064,
      "riter": 8065,
      "Ġmá»Ļt": 8066,
      "essages": 8067,
      "Ġresource": 8068,
      "è·¨": 8069,
      "ë¡": 8070,
      "çĩĥ": 8071,
      "Update": 8072,
      "sm": 8073,
      "asta": 8074,
      "Ġassess": 8075,
      "å¥¹çļĦ": 8076,
      "æĬĳ": 8077,
      "Select": 8078,
      "ĠÐ²Ñģ": 8079,
      "Ġdro": 8080,
      "comes": 8081,
      "Ġwent": 8082,
      "Rep": 8083,
      "åĪ¶å®ļ": 8084,
      "ĠZe": 8085,
      "æĦıè§ģ": 8086,
      "åĽ¢éĺŁ": 8087,
      "ĠTHE": 8088,
      "My": 8089,
      "äºĨä¸Ģä¸ª": 8090,
      "cribe": 8091,
      "([": 8092,
      "Ġ[\"": 8093,
      "Ġï¼İ": 8094,
      "cor": 8095,
      "Ø§Ø¦": 8096,
      "èĽĭçĻ½": 8097,
      "-A": 8098,
      "ÙĦÙĬ": 8099,
      "pha": 8100,
      "çĽ¸åĲĮ": 8101,
      "ĠApr": 8102,
      "æīĭæľ¯": 8103,
      "Ġmeasure": 8104,
      "ĠAug": 8105,
      "ĠService": 8106,
      "æľĢé«ĺ": 8107,
      "-left": 8108,
      "å®īæİĴ": 8109,
      "_W": 8110,
      "èİ«": 8111,
      "Ġeffects": 8112,
      "æĿ¥æºĲ": 8113,
      "ĠÐ¿Ð¾ÑģÑĤ": 8114,
      "èĤ¾": 8115,
      "(),Ċ": 8116,
      "ĠÑĩÑĤÐ¾Ð±Ñĭ": 8117,
      "Ġfire": 8118,
      "ĠLog": 8119,
      "Ġoutside": 8120,
      "Ġ-->Ċ": 8121,
      "idades": 8122,
      "è·Ŀç¦»": 8123,
      "ä¹łæĥ¯": 8124,
      "IB": 8125,
      "äº¿åħĥ": 8126,
      "ï¼ĮçĦ¶åĲİ": 8127,
      "çļĦæĹ¶éĹ´": 8128,
      "________": 8129,
      "ĠÐ²ÑĢÐµÐ¼Ñı": 8130,
      "Ġ...Ċ": 8131,
      "ç»ıåİĨ": 8132,
      "Ġfilter": 8133,
      "åĭĩ": 8134,
      "Ġgas": 8135,
      "æģĲ": 8136,
      "iden": 8137,
      "Ð¾ÑģÑĤÑĮ": 8138,
      "ä¸įè¶³": 8139,
      "Ġimpl": 8140,
      "ä¸»é¢ĺ": 8141,
      "æ¯ķä¸ļ": 8142,
      "ĠÐ¿ÑĢÐ¾ÑģÑĤ": 8143,
      "Ġprojects": 8144,
      "åĽ°éļ¾": 8145,
      "Ġquite": 8146,
      "ĠÐ´Ðµ": 8147,
      "_V": 8148,
      "Ġyourself": 8149,
      "aves": 8150,
      "ospital": 8151,
      "Ġdemand": 8152,
      "ĠestÃ¡": 8153,
      "ĠÐºÐ¾ÑĤÐ¾ÑĢÑĭÐµ": 8154,
      "çģ°": 8155,
      "ÐµÐ¹ÑģÑĤÐ²": 8156,
      "Ġcomputer": 8157,
      "iers": 8158,
      "ris": 8159,
      ".)": 8160,
      "Ġtout": 8161,
      "aches": 8162,
      "è®Ńç»ĥ": 8163,
      "Ġseason": 8164,
      "Ġdar": 8165,
      "Î½Î±": 8166,
      "ì§": 8167,
      "ĠSouth": 8168,
      "Method": 8169,
      "images": 8170,
      "ï¼ģâĢĿ": 8171,
      "Ø±ÙĬ": 8172,
      "Util": 8173,
      "Ġblood": 8174,
      "å¡ĳ": 8175,
      "AA": 8176,
      "Ġpositive": 8177,
      "wise": 8178,
      "itting": 8179,
      "ĠØ¹ÙĦÙī": 8180,
      "stract": 8181,
      "ä»ģ": 8182,
      "Ġpal": 8183,
      "abil": 8184,
      "Ġcatch": 8185,
      "Ġessential": 8186,
      "Ġoffers": 8187,
      "Ġcourt": 8188,
      "ĠÎ¿": 8189,
      "Ġhope": 8190,
      "ï¼ĮĊ": 8191,
      "Ġpolitical": 8192,
      "ãĢĤæŃ¤": 8193,
      "anie": 8194,
      "sv": 8195,
      "ĠÐ¼ÐµÑģÑĤ": 8196,
      "itude": 8197,
      "ROM": 8198,
      "æľ±": 8199,
      "Ð½ÐµÐ¹": 8200,
      "[:": 8201,
      "Ġtrong": 8202,
      "bi": 8203,
      "å±ı": 8204,
      "áĢ": 8205,
      "Ġpick": 8206,
      "Ġstudies": 8207,
      "rip": 8208,
      "åĮĸåŃ¦": 8209,
      "èĥĥ": 8210,
      "èĥ¸": 8211,
      "áº§n": 8212,
      "Ø§Ùģ": 8213,
      "urt": 8214,
      "Ġphysical": 8215,
      "roy": 8216,
      "Ġ}čĊ": 8217,
      "ä¼¯": 8218,
      "Ġik": 8219,
      "Ã©l": 8220,
      "Ġshall": 8221,
      "ÑģÐ¾Ð²": 8222,
      "ĠÚ©Ùĩ": 8223,
      "åĪĬ": 8224,
      "æģ¢å¤į": 8225,
      "âĢĺ": 8226,
      "Ġdepend": 8227,
      "å¡«": 8228,
      "åºŁ": 8229,
      "ĠÎ³": 8230,
      "ĠPat": 8231,
      "UB": 8232,
      "áº¡n": 8233,
      "Ġboolean": 8234,
      "ĠHis": 8235,
      "Ð²Ñĭ": 8236,
      "Ġwritten": 8237,
      "ä¹Ļ": 8238,
      "Ġreading": 8239,
      "ãĤ¿": 8240,
      "ĠÑĢÐ°Ñģ": 8241,
      ";čĊčĊ": 8242,
      ".create": 8243,
      "Ġexerc": 8244,
      "Ġrow": 8245,
      "Ð¼ÐµÑĢ": 8246,
      "ULT": 8247,
      "ĠDon": 8248,
      "ä»¿": 8249,
      "Off": 8250,
      "æ±¤": 8251,
      "Ġtrying": 8252,
      "(int": 8253,
      "Post": 8254,
      "parse": 8255,
      "airs": 8256,
      "èį·": 8257,
      "Ġexcept": 8258,
      "Ġpow": 8259,
      "Ġoffice": 8260,
      "mem": 8261,
      "æľīäºº": 8262,
      "Ġasked": 8263,
      "Ġ\"/": 8264,
      "arning": 8265,
      "ÐµÑĤÐµ": 8266,
      "è¦Ĩ": 8267,
      "Ð³Ð¾Ð´": 8268,
      ",åħ¶": 8269,
      "Ġhon": 8270,
      "ä½ĵéªĮ": 8271,
      "Ġprobably": 8272,
      "åĨħçļĦ": 8273,
      "UI": 8274,
      "Ġmarketing": 8275,
      "isch": 8276,
      "ĠãĢĬ": 8277,
      "Ġdeep": 8278,
      "éļĨ": 8279,
      "CM": 8280,
      "ĠCoun": 8281,
      "ĠUp": 8282,
      "Ġbis": 8283,
      "ãģ¤": 8284,
      "enced": 8285,
      "Ġcos": 8286,
      "ĠÚ¯": 8287,
      "ä¼Ł": 8288,
      "Ġparte": 8289,
      "cp": 8290,
      "Part": 8291,
      "Ġmodels": 8292,
      "è®¯": 8293,
      "ĠLib": 8294,
      "çº¤": 8295,
      "Ġeinem": 8296,
      "æ³ķéĻ¢": 8297,
      "æĩĤ": 8298,
      "Ġwindow": 8299,
      "olar": 8300,
      "si": 8301,
      "Æ°á»Ľ": 8302,
      "server": 8303,
      "ä»Ĭå¹´": 8304,
      "æī«": 8305,
      "è¡¨æĺİ": 8306,
      "Ġnut": 8307,
      "æĶ¹åĸĦ": 8308,
      "space": 8309,
      "Ġregister": 8310,
      "×Ļ": 8311,
      "-se": 8312,
      "ĠTechn": 8313,
      "Ġthemselves": 8314,
      "Ġvá»Ľi": 8315,
      "Ð¼Ð¾ÑĤ": 8316,
      "teger": 8317,
      "å¿Ļ": 8318,
      "ĠÐ¼ÐµÐ½": 8319,
      "Ġargs": 8320,
      "Ġwin": 8321,
      "ĠÐ³Ð¾Ð´Ð°": 8322,
      "çĶŁçļĦ": 8323,
      "Ġaverage": 8324,
      "usr": 8325,
      "ãģªãģĦ": 8326,
      "çĶĺ": 8327,
      "è½´": 8328,
      "å¤ļçļĦ": 8329,
      "Ġgraph": 8330,
      "Ð¸Ð¿": 8331,
      "Ġmanufact": 8332,
      "ĠÐ´ÐµÑĤ": 8333,
      "ç½²": 8334,
      "ÐµÐ»Ð¾Ð²": 8335,
      "Ð¸ÑĢÐ¾Ð²": 8336,
      "ponents": 8337,
      "])": 8338,
      "ĠMc": 8339,
      "ĠÑĤÐµÐ¼": 8340,
      "ekt": 8341,
      "äººçī©": 8342,
      "Ð·Ð½Ð°": 8343,
      "ĠMore": 8344,
      "Command": 8345,
      "å¹¼åĦ¿": 8346,
      "æ³°": 8347,
      "Ġpattern": 8348,
      "è¾ĵåħ¥": 8349,
      "ĠØ§ÛĮÙĨ": 8350,
      "ĠÐ¥": 8351,
      "ivil": 8352,
      "éĢĲæ¸Ĳ": 8353,
      "æĹĹ": 8354,
      "èĩªæĪĳ": 8355,
      "Block": 8356,
      "eren": 8357,
      "Ø¥": 8358,
      "ãģĪ": 8359,
      "ĠÐłÐ¾ÑģÑģ": 8360,
      "Â«": 8361,
      "ĠÐ¾ÑĢÐ³": 8362,
      "ART": 8363,
      "area": 8364,
      "Ġliter": 8365,
      "ares": 8366,
      "=\"#": 8367,
      "Ð¸ÑĤÑĮÑģÑı": 8368,
      "Create": 8369,
      "ä¼Ļ": 8370,
      "å¹´ä»£": 8371,
      "Ġ($": 8372,
      "ÙĪÙħ": 8373,
      "Æ°á»Ŀi": 8374,
      "âĸ": 8375,
      "åĢ¾": 8376,
      "ĠMus": 8377,
      "çº¹": 8378,
      "yes": 8379,
      "Ġhay": 8380,
      "Ġfem": 8381,
      "ÛĮØ±": 8382,
      "Ġva": 8383,
      "ĠWill": 8384,
      "ãģĭãĤī": 8385,
      "èĸĦ": 8386,
      "Ġtravel": 8387,
      "ĠDirect": 8388,
      "èĪĴ": 8389,
      "Ð½Ð¸Ð¹": 8390,
      "Ġveh": 8391,
      "æĬ±": 8392,
      "Ġnothing": 8393,
      "ðŁ": 8394,
      "CD": 8395,
      "ÑĥÑīÐµ": 8396,
      "Ġconsidered": 8397,
      "ÑĢÐ¾Ð´": 8398,
      "Ġzur": 8399,
      "inding": 8400,
      "Ġprefer": 8401,
      "iro": 8402,
      "ĠInternet": 8403,
      "itute": 8404,
      "Ver": 8405,
      "ĠåĴĮ": 8406,
      "ìĿĺ": 8407,
      "Ġvotre": 8408,
      "Ġdownload": 8409,
      "ÐµÑĢÐµÐ´": 8410,
      "aving": 8411,
      "åĽ¾ä¹¦": 8412,
      "ä½įäºİ": 8413,
      "lem": 8414,
      "bal": 8415,
      "åıįæĺł": 8416,
      "rial": 8417,
      "Ġattack": 8418,
      "ĠNOT": 8419,
      "sten": 8420,
      "æīĢè°ĵ": 8421,
      "åĪ¤æĸŃ": 8422,
      "è¿ģ": 8423,
      "ĠÐ¿ÑĢÐ¾Ð¸Ð·": 8424,
      "Ġremove": 8425,
      "Ð»ÑİÑĩ": 8426,
      "ĠNorth": 8427,
      "çļĦæĸ¹æ³ķ": 8428,
      ".value": 8429,
      "owa": 8430,
      "ĠÐ½Ð°ÑĪ": 8431,
      "ÐµÐ½Ñĭ": 8432,
      "Ġparent": 8433,
      "å°º": 8434,
      "çĽ¸å½ĵ": 8435,
      "hell": 8436,
      "è¿ĲçĶ¨": 8437,
      "åĪ·": 8438,
      "ÐµÐ»ÐµÐ¹": 8439,
      "Ġopportunity": 8440,
      "Ġstress": 8441,
      "Url": 8442,
      "Ġorganization": 8443,
      "ĠSub": 8444,
      "Ġ.Ċ": 8445,
      "ç±į": 8446,
      "acer": 8447,
      "åĬŀåħ¬": 8448,
      "izes": 8449,
      "å®ĥçļĦ": 8450,
      "Ġnet": 8451,
      "ĠÑıÐ²": 8452,
      "mal": 8453,
      "'un": 8454,
      "ĠAmerica": 8455,
      "idos": 8456,
      "è´¹çĶ¨": 8457,
      "AGE": 8458,
      "wi": 8459,
      "Ġcurrently": 8460,
      "çĽ¸äºĴ": 8461,
      ".new": 8462,
      "Ġheld": 8463,
      "dy": 8464,
      "ç¡®ä¿Ŀ": 8465,
      "ebru": 8466,
      "ALL": 8467,
      "Ġbuilt": 8468,
      "isl": 8469,
      "æĪĲåĳĺ": 8470,
      "Ð¼Ñĭ": 8471,
      "ä¼¸": 8472,
      "ĠæĪĳ": 8473,
      "éĻ·": 8474,
      "Ġtour": 8475,
      "Ġfoot": 8476,
      "è§Ĩé¢ĳ": 8477,
      "ĠÐµÑģÐ»Ð¸": 8478,
      "Ġevidence": 8479,
      "CR": 8480,
      "Ġnoch": 8481,
      "Ġresid": 8482,
      "ÑĦÐ¸": 8483,
      "witter": 8484,
      "example": 8485,
      "åľ°ä½į": 8486,
      "Ġboard": 8487,
      "ĠMr": 8488,
      "æ¶Īæģ¯": 8489,
      "Header": 8490,
      "ttp": 8491,
      "äºķ": 8492,
      "-F": 8493,
      "\\\"": 8494,
      "RUN": 8495,
      "Ġfit": 8496,
      "-v": 8497,
      "ï¼Įå½ĵ": 8498,
      "ä¸¤ç§į": 8499,
      "Ġesta": 8500,
      "hold": 8501,
      "ÐµÐ½Ð¸Ñİ": 8502,
      "Ġasync": 8503,
      "bt": 8504,
      "-de": 8505,
      "ä¸Ńåįİ": 8506,
      "Ġinvolved": 8507,
      "ĠBer": 8508,
      "ota": 8509,
      "ÃŃs": 8510,
      "ĠPort": 8511,
      "Ġdoor": 8512,
      "éĶĻè¯¯": 8513,
      "tÃ³": 8514,
      "enge": 8515,
      "æĹģ": 8516,
      "å¤Ħäºİ": 8517,
      "Ġuses": 8518,
      "æ´Ľ": 8519,
      ",ä½¿": 8520,
      "Ġcit": 8521,
      "olve": 8522,
      "Ġprogress": 8523,
      "ĉcase": 8524,
      "ĠDet": 8525,
      "Ġreach": 8526,
      "Ġcustomer": 8527,
      "only": 8528,
      "ema": 8529,
      "Ġfriend": 8530,
      "Ġju": 8531,
      "Ð¾ÑĢÑĤ": 8532,
      "Ġappear": 8533,
      "rec": 8534,
      "arter": 8535,
      "å¿½": 8536,
      "CK": 8537,
      "ĠAz": 8538,
      "å®ĩ": 8539,
      "Ġfeed": 8540,
      "éĩįæĸ°": 8541,
      "è¿«": 8542,
      "urity": 8543,
      "oon": 8544,
      "èħĶ": 8545,
      "éĻĲåĪ¶": 8546,
      "ãĢĤä»İ": 8547,
      "require": 8548,
      "/L": 8549,
      "Pol": 8550,
      "ç½ļ": 8551,
      "Ġnous": 8552,
      "bon": 8553,
      "mission": 8554,
      "()ĊĊ": 8555,
      "Resource": 8556,
      "top": 8557,
      "illed": 8558,
      "Ġord": 8559,
      "aign": 8560,
      "ATION": 8561,
      "force": 8562,
      "ï¼Įä»ĸä»¬": 8563,
      "oma": 8564,
      "ÑĥÐµÑĤ": 8565,
      "Ġsig": 8566,
      "ĠOut": 8567,
      "Ġdir": 8568,
      "Ġconv": 8569,
      "Ġcapital": 8570,
      "æīĵå¼Ģ": 8571,
      "Ġtend": 8572,
      "msg": 8573,
      "then": 8574,
      "è§ĦåĪĻ": 8575,
      "çĽ¸ä¿¡": 8576,
      ",čĊ": 8577,
      "}\"": 8578,
      "ĠÐ½Ð°Ð¿": 8579,
      "fi": 8580,
      "æĦŁæŁĵ": 8581,
      "ç´«": 8582,
      "Ġconsult": 8583,
      "igger": 8584,
      "èĭ±è¯Ń": 8585,
      "Ġscient": 8586,
      "Ġhaben": 8587,
      "Ġinnov": 8588,
      "å±ħæ°ĳ": 8589,
      "private": 8590,
      "email": 8591,
      "Ġimmedi": 8592,
      "èĭ±åĽ½": 8593,
      "ãģ£ãģŁ": 8594,
      "ĠÃ©s": 8595,
      "ãĢĤï¼Ī": 8596,
      "endif": 8597,
      "Ġfirm": 8598,
      "æĢª": 8599,
      ".util": 8600,
      "})Ċ": 8601,
      "Ġparents": 8602,
      "oding": 8603,
      "inh": 8604,
      "Ġmilit": 8605,
      "è´¢æĶ¿": 8606,
      "æĹĭ": 8607,
      "ç£¨": 8608,
      "page": 8609,
      "Equal": 8610,
      "Ġgrand": 8611,
      "Ġsituation": 8612,
      "ç¾İåħĥ": 8613,
      "Ã¤nd": 8614,
      "Ġindepend": 8615,
      "Ġskin": 8616,
      "Ġreduce": 8617,
      "ĠObject": 8618,
      "isions": 8619,
      "<td": 8620,
      "icos": 8621,
      "ĠFe": 8622,
      "äºĭå®ŀ": 8623,
      "Ã§Ãµes": 8624,
      "ester": 8625,
      "ĠÐ´Ð¾Ð¼": 8626,
      "ercial": 8627,
      ".cl": 8628,
      "ĠWhile": 8629,
      ".z": 8630,
      "Ġdeliver": 8631,
      "Ġstrateg": 8632,
      "Ġshown": 8633,
      "tocol": 8634,
      "åĬ¨çī©": 8635,
      "ego": 8636,
      "å¾Ĳ": 8637,
      "æĪĲç»©": 8638,
      "ĠAfric": 8639,
      "rea": 8640,
      "æ¢ħ": 8641,
      "Ġparts": 8642,
      "Ð°Ð¶": 8643,
      "Ġjson": 8644,
      "ĠHol": 8645,
      "(_": 8646,
      "ï¼Įè®©": 8647,
      "Buffer": 8648,
      "Ġhy": 8649,
      "Edit": 8650,
      "ians": 8651,
      "igt": 8652,
      "Ġquery": 8653,
      "ĠDepartment": 8654,
      "åĩłä¹İ": 8655,
      "é©¾": 8656,
      "efined": 8657,
      "ĠOct": 8658,
      "omb": 8659,
      "Ä±ÅŁ": 8660,
      "ÑĥÐ²": 8661,
      "build": 8662,
      ",æĽ´": 8663,
      "åħĥç´ł": 8664,
      "ĠÐ¼Ð¾Ð³": 8665,
      "ography": 8666,
      "çĽ¾": 8667,
      "ÑĨÑĸ": 8668,
      "Ġdeveloped": 8669,
      "rim": 8670,
      "æŁ±": 8671,
      "Ġdefined": 8672,
      "ä¸»åĬ¨": 8673,
      "æīĭæ®µ": 8674,
      "Ġsurface": 8675,
      "ä¸¥æł¼": 8676,
      "Ġinj": 8677,
      "Ġappropri": 8678,
      "_DIR": 8679,
      "Ġemerg": 8680,
      "Ð»ÐµÐ½Ð¸Ðµ": 8681,
      "google": 8682,
      "Ġdirectly": 8683,
      "(a": 8684,
      "æ®ĸ": 8685,
      "Ð¾Ñī": 8686,
      "ä¿Ħ": 8687,
      "ĠÐ½Ð°Ñģ": 8688,
      "é©±": 8689,
      "ĠØµ": 8690,
      "Ġseek": 8691,
      "Ð¾ÑģÐº": 8692,
      "ĠÐ¿Ð¾Ð¿": 8693,
      "ÚĨ": 8694,
      "(const": 8695,
      "çºµ": 8696,
      "base": 8697,
      "Ġapplications": 8698,
      "Ġencou": 8699,
      "aus": 8700,
      "Ġdemon": 8701,
      "èĭĹ": 8702,
      "ĠDav": 8703,
      "ĠPost": 8704,
      "can": 8705,
      "ä¼į": 8706,
      "Ġquant": 8707,
      "æķ¬": 8708,
      "FT": 8709,
      "çļĦä¸»è¦ģ": 8710,
      "è§Ĵåº¦": 8711,
      "ĠPark": 8712,
      "ERT": 8713,
      "iá»ĩn": 8714,
      "è°±": 8715,
      "ï¼Įä¸İ": 8716,
      "-width": 8717,
      "éĩįè§Ĩ": 8718,
      "Ġsales": 8719,
      "æĪĲæŀľ": 8720,
      "Ġinsurance": 8721,
      "æĭĵ": 8722,
      "Ġbra": 8723,
      "GB": 8724,
      "cu": 8725,
      "-D": 8726,
      "Ġsitu": 8727,
      "ĠOb": 8728,
      "ĠÐ°Ðº": 8729,
      "ÑĨÐ¸Ð°Ð»ÑĮ": 8730,
      "çļĦåŁºç¡Ģ": 8731,
      "aws": 8732,
      "tex": 8733,
      "ĠBrit": 8734,
      "Ġpublished": 8735,
      "æ³¡": 8736,
      "ESS": 8737,
      "éŃĶ": 8738,
      "éĶģ": 8739,
      "Ġclin": 8740,
      "Ä±k": 8741,
      "Ġforce": 8742,
      "ÑıÑĤÐ¸": 8743,
      ",å¦Ĥ": 8744,
      "Ġtal": 8745,
      "å¼ķçĶ¨æĹ¥æľŁ": 8746,
      "æľ¬èº«": 8747,
      "Ø§Ø´": 8748,
      "æ¯Ķä¾ĭ": 8749,
      "Ð»ÐµÐ´": 8750,
      "erap": 8751,
      "ĠÐ¼Ð°ÑĤ": 8752,
      "éĢĤåĲĪ": 8753,
      "ÏģÎ¹": 8754,
      "hl": 8755,
      "åĬłå·¥": 8756,
      "ailed": 8757,
      "çļĦä¸Ģä¸ª": 8758,
      "CA": 8759,
      "èµŀ": 8760,
      "Ġpel": 8761,
      "Ġ['": 8762,
      "ensions": 8763,
      "èįĲ": 8764,
      "Ġcross": 8765,
      "ĠìĿ": 8766,
      "Ġmaterials": 8767,
      "ï¼ĮåĽłæŃ¤": 8768,
      "Open": 8769,
      "Ġbasic": 8770,
      "å¹¿æ³Ľ": 8771,
      "å¼ķå¯¼": 8772,
      "Ġgro": 8773,
      "ĠAp": 8774,
      "ÐµÑĤÐ°": 8775,
      "åŃķ": 8776,
      "æĮĩåĩº": 8777,
      "xim": 8778,
      "(v": 8779,
      "Ġprofession": 8780,
      "una": 8781,
      "rown": 8782,
      "Ġpero": 8783,
      "æĥ³è¦ģ": 8784,
      "])Ċ": 8785,
      "Ġwatch": 8786,
      "æ³½": 8787,
      "æĶ¯ä»ĺ": 8788,
      "ÃĹ": 8789,
      "ĠÑĦÐ¾ÑĢ": 8790,
      "Ã¡ch": 8791,
      "Ġbeaut": 8792,
      "ASS": 8793,
      "Hel": 8794,
      "å£°éŁ³": 8795,
      "(l": 8796,
      "Ġmig": 8797,
      "Ġinside": 8798,
      "Ġincreased": 8799,
      "ĠÐ´Ð¾Ð»Ð¶": 8800,
      "Ġeveryone": 8801,
      "ĠÐ¾ÑģÐ½Ð¾Ð²": 8802,
      "gu": 8803,
      "byte": 8804,
      "ERR": 8805,
      "çıł": 8806,
      "Ste": 8807,
      "isp": 8808,
      "èħº": 8809,
      "ĠÙĦÙĦ": 8810,
      "Ġsafety": 8811,
      "Ġstrength": 8812,
      "NS": 8813,
      "Ġlives": 8814,
      "gi": 8815,
      "tty": 8816,
      "();": 8817,
      ">&": 8818,
      "ede": 8819,
      "å¦»": 8820,
      "Do": 8821,
      "ĠFin": 8822,
      "Builder": 8823,
      "Ext": 8824,
      "PT": 8825,
      "Ġpict": 8826,
      "éĩįå¤§": 8827,
      "sa": 8828,
      "iá»ģu": 8829,
      "ĠAssoci": 8830,
      "ĠResearch": 8831,
      "Ġrelig": 8832,
      "prise": 8833,
      "ÑıÑĤÑĮ": 8834,
      "æħ§": 8835,
      "ĠRem": 8836,
      "Ġclients": 8837,
      "Æ°Æ¡": 8838,
      "Ġple": 8839,
      "Ġrequirements": 8840,
      "rowser": 8841,
      "/h": 8842,
      "á»į": 8843,
      "æĸ¹éĿ¢çļĦ": 8844,
      "Ġunit": 8845,
      "-right": 8846,
      "Ġmodule": 8847,
      "Ġconnection": 8848,
      "èµ¶": 8849,
      "éº¦": 8850,
      "ĠInternational": 8851,
      "Ġtempl": 8852,
      "Ġattempt": 8853,
      "æĢ§åĴĮ": 8854,
      "è¾ĵåĩº": 8855,
      "åĪĽä¸ļ": 8856,
      "Ġaspect": 8857,
      "known": 8858,
      "AV": 8859,
      "åĵ²": 8860,
      "Ġdei": 8861,
      "Ġtransport": 8862,
      "'ĊĊ": 8863,
      "rat": 8864,
      "ributes": 8865,
      "pping": 8866,
      "Dev": 8867,
      "æĻ¶": 8868,
      "å·¥èīº": 8869,
      "å°ıåŃ¦": 8870,
      "Ġæĺ¯": 8871,
      "çĹĩçĬ¶": 8872,
      "Ð¸ÑģÑĮ": 8873,
      "æĲľ": 8874,
      "ÃŃn": 8875,
      "ĠÃ¤r": 8876,
      "{čĊ": 8877,
      "åĪ«äºº": 8878,
      "äºĭæĥħ": 8879,
      "Valid": 8880,
      "è´¡": 8881,
      "èµĸ": 8882,
      "Ġstock": 8883,
      "Ġrules": 8884,
      "erved": 8885,
      "æľĹ": 8886,
      "izz": 8887,
      "})": 8888,
      "ĠWar": 8889,
      "Ġcop": 8890,
      "(data": 8891,
      "ptember": 8892,
      "istory": 8893,
      "éĿĴå¹´": 8894,
      "ĠProf": 8895,
      "åĲįç§°": 8896,
      "AND": 8897,
      "Ġba": 8898,
      "éģĵè·¯": 8899,
      "Ġ<!--": 8900,
      "å·¥ä½ľçļĦ": 8901,
      "æĹ¦": 8902,
      "Ġnumbers": 8903,
      "å¼ºè°ĥ": 8904,
      "ĠÃ¡": 8905,
      "å¥³æĢ§": 8906,
      "Ġbul": 8907,
      "ynamic": 8908,
      "éĥ½ä¸į": 8909,
      "olo": 8910,
      "ĠÐ½ÑĥÐ¶": 8911,
      "ĠHT": 8912,
      "Ð°ÑĤÐ¸": 8913,
      "illing": 8914,
      "Ġont": 8915,
      "owe": 8916,
      "Ġunderstanding": 8917,
      "Ġthroughout": 8918,
      "Ġreported": 8919,
      "Vis": 8920,
      "ĠØ±Ø§": 8921,
      "uis": 8922,
      "Ob": 8923,
      "Ġìŀ": 8924,
      "ality": 8925,
      "åŃ¦çĶŁçļĦ": 8926,
      "Ġacqu": 8927,
      "æī¾åĪ°": 8928,
      "ĠØ¨Ø§": 8929,
      "rav": 8930,
      "idge": 8931,
      "á»¯ng": 8932,
      "Ġ});ĊĊ": 8933,
      "Ġattention": 8934,
      "ãģķãĤĮ": 8935,
      "åĬłåħ¥": 8936,
      "çħ¤": 8937,
      "Ð³ÑĢÐ°": 8938,
      "ĠInc": 8939,
      "ãĢĤä½Ĩæĺ¯": 8940,
      "ÑģÑĤÐ°": 8941,
      "Ġdog": 8942,
      "Ġsoon": 8943,
      "Ġtag": 8944,
      "è´¸æĺĵ": 8945,
      "ellow": 8946,
      "ĠÐ´Ð¸": 8947,
      "ĠÑĥÑģÐ»": 8948,
      "asons": 8949,
      "Ð±Ð¾ÑĢ": 8950,
      "Ġseems": 8951,
      "PA": 8952,
      "èĢĮè¨Ģ": 8953,
      "respond": 8954,
      "-content": 8955,
      "à§": 8956,
      "```Ċ": 8957,
      "èĪį": 8958,
      "çļĦæĸ¹å¼ı": 8959,
      "blic": 8960,
      "lik": 8961,
      "èĥĨ": 8962,
      "Ġelements": 8963,
      "ĠType": 8964,
      "æŃ£å¼ı": 8965,
      "Ġsubs": 8966,
      "-a": 8967,
      "åĴ¨": 8968,
      "Ġcancer": 8969,
      "ashing": 8970,
      "Ġpopulation": 8971,
      "ç§»åĬ¨": 8972,
      "Ä±m": 8973,
      "Default": 8974,
      "ĠÐµÑģÑĤÑĮ": 8975,
      "ĠÐ´Ð°Ð½": 8976,
      "ogy": 8977,
      "ĠEin": 8978,
      ".Error": 8979,
      "çļĨ": 8980,
      "src": 8981,
      "Bl": 8982,
      "Ġled": 8983,
      "ĠRead": 8984,
      "================================": 8985,
      "eme": 8986,
      "/f": 8987,
      "(i": 8988,
      "ums": 8989,
      "æµ®": 8990,
      "Mode": 8991,
      "Ġfriends": 8992,
      "cs": 8993,
      "Ġpan": 8994,
      "gar": 8995,
      "Ġroad": 8996,
      "è¡Ģç®¡": 8997,
      "Exp": 8998,
      "rate": 8999,
      "Ġsession": 9000,
      "ÑĨÑĭ": 9001,
      "ÙĬØ¯": 9002,
      "æķĻæİĪ": 9003,
      "<!--": 9004,
      "Ġexecut": 9005,
      "prim": 9006,
      "RL": 9007,
      "Ġscale": 9008,
      "×ķ": 9009,
      "ç£ģ": 9010,
      "Ġexisting": 9011,
      "node": 9012,
      "atabase": 9013,
      "èĥİ": 9014,
      "æĢĿèĢĥ": 9015,
      "èģĮå·¥": 9016,
      "æĿ¯": 9017,
      "ÑĢÐ¾Ðº": 9018,
      "Ð³Ñĥ": 9019,
      "Ġinvestig": 9020,
      "di": 9021,
      "Ġindividuals": 9022,
      "foot": 9023,
      "æŀĦæĪĲ": 9024,
      "ĠFre": 9025,
      "Ġhier": 9026,
      "Ġincreasing": 9027,
      "ĠÑĥÐ¶Ðµ": 9028,
      "çİĭæŀĹ": 9029,
      "Ġbehind": 9030,
      "itect": 9031,
      "æĸĩåŃĹ": 9032,
      "(err": 9033,
      "ĠEnt": 9034,
      "Ġculture": 9035,
      "ĠUser": 9036,
      "ham": 9037,
      "ï¼ĮåĨį": 9038,
      "è©": 9039,
      "Ġoccur": 9040,
      "åĲĮæł·": 9041,
      "æ³ī": 9042,
      "iente": 9043,
      "åģļåĪ°": 9044,
      "ĠEX": 9045,
      "Ġcollection": 9046,
      "èµı": 9047,
      "åº¦çļĦ": 9048,
      "API": 9049,
      "ÅĤo": 9050,
      "ĠÐ°Ð½": 9051,
      "emos": 9052,
      "ensor": 9053,
      "Ġrespond": 9054,
      "å²¸": 9055,
      "Ġngh": 9056,
      "æĻĤ": 9057,
      "éģŃ": 9058,
      "Ġsust": 9059,
      "åįģäºĮ": 9060,
      "eries": 9061,
      "phone": 9062,
      "ä¼ģä¸ļçļĦ": 9063,
      "çĬ¶åĨµ": 9064,
      "Ġeasily": 9065,
      "ä¹Į": 9066,
      "è¶ĭåĬ¿": 9067,
      "Label": 9068,
      ".in": 9069,
      "Ġrecommend": 9070,
      "usion": 9071,
      "ç»´æĬ¤": 9072,
      "Ġcandid": 9073,
      "astr": 9074,
      "Ġesc": 9075,
      "ÑħÐ¾Ð´Ð¸Ð¼": 9076,
      "ancy": 9077,
      "IX": 9078,
      "Init": 9079,
      "True": 9080,
      "Module": 9081,
      "Ð»ÑıÐµÑĤÑģÑı": 9082,
      "asc": 9083,
      "Ġprem": 9084,
      "å¾ªçİ¯": 9085,
      "Ð»ÐµÐ¼": 9086,
      "ãĢģãĢĬ": 9087,
      "Address": 9088,
      "rupt": 9089,
      "ĠCopyright": 9090,
      "ĠFile": 9091,
      "Ġquickly": 9092,
      "ĠNow": 9093,
      "ĠÑįÑĤÐ¾Ð¼": 9094,
      "ĠÐ²ÐµÑĢ": 9095,
      "Ġgest": 9096,
      "Ġsound": 9097,
      "/w": 9098,
      "Ġmedic": 9099,
      "ĠÑģÐ»ÐµÐ´": 9100,
      "ç¢į": 9101,
      "}{": 9102,
      "ç¢İ": 9103,
      "','": 9104,
      "Go": 9105,
      "ä¸»ä½ĵ": 9106,
      "ÑĢÐµÐ½": 9107,
      "Ġvir": 9108,
      "Ġdurch": 9109,
      ",éĤ£": 9110,
      "Ġdoesn": 9111,
      "Ġdifference": 9112,
      "ĠHar": 9113,
      "Ġweeks": 9114,
      "ĠÑī": 9115,
      "ĠÙħØ¹": 9116,
      "ãĤµ": 9117,
      "Ġselected": 9118,
      "impl": 9119,
      "Ġemployees": 9120,
      "Ġrelease": 9121,
      "ĠGerm": 9122,
      "\"`Ċ": 9123,
      "ãģĦãĤĭ": 9124,
      "áº£i": 9125,
      "amin": 9126,
      "ç²®": 9127,
      "å¹´è½»": 9128,
      "å¤ļç§į": 9129,
      "çļĦæĸ°": 9130,
      "Ġtodo": 9131,
      "Ġleave": 9132,
      "æĢĿç»´": 9133,
      "Ġrelev": 9134,
      "_DE": 9135,
      "åĪĨäº«": 9136,
      "è¿Ĳè¾ĵ": 9137,
      "ĠÑĤÐµÑħ": 9138,
      "åĪĨç±»": 9139,
      "çĮª": 9140,
      "æĤī": 9141,
      "ĠÐ¯": 9142,
      "ÑĢÐ°ÑĤ": 9143,
      "åĿ¡": 9144,
      "æ²»çĲĨ": 9145,
      "Ð½Ð¾ÑģÑĤ": 9146,
      "ĠktÃ³": 9147,
      "Ġmemory": 9148,
      "oir": 9149,
      "anh": 9150,
      "æı´": 9151,
      "æĬĢèĥ½": 9152,
      "Ġideas": 9153,
      "æĦıæĢĿ": 9154,
      "asse": 9155,
      "Ġmechan": 9156,
      "tee": 9157,
      "ç³»ç»ŁçļĦ": 9158,
      "Ġslow": 9159,
      "ÈĽ": 9160,
      "ĠAPI": 9161,
      "apan": 9162,
      "âĦ": 9163,
      "æľºæ¢°": 9164,
      "SION": 9165,
      "Ġpatient": 9166,
      "berg": 9167,
      "âĶĢ": 9168,
      "Ġgoal": 9169,
      "Ġtar": 9170,
      "âĢĻd": 9171,
      "ÑĢÑĥÐ´": 9172,
      "atives": 9173,
      "aby": 9174,
      "Ġtransfer": 9175,
      "Ġaber": 9176,
      "ĠÐ¾Ð±Ð»Ð°": 9177,
      "åĴ¨è¯¢": 9178,
      "gle": 9179,
      "Ġ>>": 9180,
      "æīİ": 9181,
      "è¿ŀç»Ń": 9182,
      "DS": 9183,
      "Ġcoming": 9184,
      "ï¼ĽĊ": 9185,
      "èĤ¯å®ļ": 9186,
      "è´Ńä¹°": 9187,
      "ori": 9188,
      "æĻĭ": 9189,
      "aling": 9190,
      "Ġscript": 9191,
      "äºĴèģĶç½ĳ": 9192,
      "èĥĮæĻ¯": 9193,
      "ĠEnglish": 9194,
      "ĠPublic": 9195,
      "ÑĢÐ¸Ð¼": 9196,
      "Ġbooks": 9197,
      "åĬ¨åĬĽ": 9198,
      "ç¤¾ä¼ļä¸»ä¹ī": 9199,
      "ÑĨÐ¸Ñİ": 9200,
      "æĺ¯æĮĩ": 9201,
      "Ġpen": 9202,
      "Ġheav": 9203,
      "çŃ¹": 9204,
      "Ġfat": 9205,
      "Ġlines": 9206,
      "æ¯ĶèµĽ": 9207,
      "Ġamb": 9208,
      "ãĤ£": 9209,
      "-up": 9210,
      "Ġlie": 9211,
      "ĠÐ¾Ð±ÑĢÐ°Ð·": 9212,
      ",èĢĮä¸Ķ": 9213,
      "çĸ«æĥħ": 9214,
      "ĉthis": 9215,
      "æĪĺäºī": 9216,
      "Ġprimary": 9217,
      "ĠkÃ¶nnen": 9218,
      "Ġnote": 9219,
      "connect": 9220,
      "ï¼ĮçĶ¨": 9221,
      "ĠAustral": 9222,
      "Ġscience": 9223,
      "Ġdistributed": 9224,
      "Ġza": 9225,
      "å¹¿åĳĬ": 9226,
      "buf": 9227,
      "ĠRuss": 9228,
      "ĠÐ½Ð¸": 9229,
      "ĠÑĩÐµÐ»Ð¾Ð²": 9230,
      "æ·»åĬł": 9231,
      "enz": 9232,
      "CS": 9233,
      "Ġwur": 9234,
      "èī²çļĦ": 9235,
      "oe": 9236,
      "Ð»Ð¾Ð¶": 9237,
      "Ġsel": 9238,
      "èĲ¨": 9239,
      "ä½ĵçİ°": 9240,
      "Ãłnh": 9241,
      "ownload": 9242,
      "ä¸Ĭè¿°": 9243,
      "ASE": 9244,
      "èķ": 9245,
      "ä»£çłģ": 9246,
      "resource": 9247,
      "ĠÐ½ÐµÐ¾Ð±": 9248,
      "Ġpou": 9249,
      "ç«¹": 9250,
      "expected": 9251,
      "åŃ¦ä¼ļ": 9252,
      "rant": 9253,
      "ĠDer": 9254,
      "åįıè®®": 9255,
      "åĨ³çŃĸ": 9256,
      "ĠÎ¼Îµ": 9257,
      "Ġbottom": 9258,
      "å°±ä¸ļ": 9259,
      "Ġtip": 9260,
      "ords": 9261,
      "èĩ£": 9262,
      "Ġparty": 9263,
      "module": 9264,
      "Ġvirtual": 9265,
      "ï½": 9266,
      "èĲ¥åħ»": 9267,
      "ĠChar": 9268,
      "ë¡ľ": 9269,
      "Back": 9270,
      "æĹ¶çļĦ": 9271,
      "à¥": 9272,
      "ĠDate": 9273,
      "ago": 9274,
      "ãģĽ": 9275,
      "ãĢĤå½ĵ": 9276,
      "Ġstream": 9277,
      "ãĤ«": 9278,
      "race": 9279,
      "=$": 9280,
      "ĠÐ¸Ð¼": 9281,
      "Ġcele": 9282,
      "ĠÐ¾Ð±ÑĬ": 9283,
      "ÐµÐ½Ð¸ÐµÐ¼": 9284,
      "}čĊčĊ": 9285,
      "Ġproperties": 9286,
      "Ġphone": 9287,
      "inde": 9288,
      "Ġsafe": 9289,
      "ĠCre": 9290,
      "-P": 9291,
      "instance": 9292,
      "pack": 9293,
      "å¹¸ç¦ı": 9294,
      "Ġpressure": 9295,
      "æ¸ħæ¥ļ": 9296,
      "ĠÃ¥": 9297,
      "uv": 9298,
      "uary": 9299,
      "ds": 9300,
      "enta": 9301,
      "Ãłng": 9302,
      "ĠÑģÐ»ÑĥÑĩ": 9303,
      "ĠÑģÐµÐ±": 9304,
      "covery": 9305,
      "æĳĨ": 9306,
      "áº£n": 9307,
      "éĢĤåºĶ": 9308,
      "çĲĨå¿µ": 9309,
      "çļ®èĤ¤": 9310,
      "radius": 9311,
      "Ġ>=": 9312,
      "çľŁå®ŀ": 9313,
      "ãĥĨ": 9314,
      "ĠClass": 9315,
      "Ġtrust": 9316,
      "ĠGeneral": 9317,
      "Æ°á»Ŀng": 9318,
      "ĠChe": 9319,
      "ĠÑģÐµÑĢ": 9320,
      "Ġinfo": 9321,
      "Ġ}}": 9322,
      "åħ´è¶£": 9323,
      "è®¤çľŁ": 9324,
      "ĠHere": 9325,
      "Ø¨Ø±": 9326,
      "ĠÐ¾ÑĩÐµÐ½ÑĮ": 9327,
      "Ã¡m": 9328,
      "Ġsolutions": 9329,
      "ĠFacebook": 9330,
      "Ġimages": 9331,
      "Ġwanted": 9332,
      "å®ı": 9333,
      "Ġ'@": 9334,
      "![": 9335,
      "dr": 9336,
      "ä¸Ģä¸ªäºº": 9337,
      "è¹": 9338,
      "_add": 9339,
      "ÑĢÑĥÐ¿": 9340,
      "æĺ¯ä¸į": 9341,
      "-year": 9342,
      "Ġmm": 9343,
      "Ġstra": 9344,
      "ques": 9345,
      "æĿ°": 9346,
      "è¯Ħä¼°": 9347,
      "itable": 9348,
      "èİ·åıĸ": 9349,
      "Ġfactors": 9350,
      "Ġannoun": 9351,
      ".net": 9352,
      "_se": 9353,
      "Me": 9354,
      "oder": 9355,
      "acing": 9356,
      "Ġproviding": 9357,
      "etes": 9358,
      "BC": 9359,
      "Ã§a": 9360,
      "vement": 9361,
      "Ġcontains": 9362,
      "Override": 9363,
      "Ø§ØŃ": 9364,
      "Ġbutton": 9365,
      "!(": 9366,
      "itation": 9367,
      "tx": 9368,
      "ĠSen": 9369,
      "ĠngÆ°á»Ŀi": 9370,
      ".state": 9371,
      "ÑĢÐ°Ð¶": 9372,
      "Ġsites": 9373,
      "éĢĥ": 9374,
      "este": 9375,
      "strong": 9376,
      "çıį": 9377,
      "Ġmehr": 9378,
      "âĳ¢": 9379,
      "Ġwrong": 9380,
      "Ġä¸º": 9381,
      "åħļåĳĺ": 9382,
      "bot": 9383,
      "Å£": 9384,
      "å¤§éĩı": 9385,
      "åĩºçīĪç¤¾": 9386,
      "iny": 9387,
      "false": 9388,
      ".H": 9389,
      "OW": 9390,
      "Ġflo": 9391,
      "cciÃ³n": 9392,
      "ĠÐ¾Ðº": 9393,
      "æľīäºĨ": 9394,
      "ĠÐ·Ð´": 9395,
      "ĠUse": 9396,
      "ĠCounty": 9397,
      "Ġtill": 9398,
      "<p": 9399,
      "åĺ´": 9400,
      "ronic": 9401,
      "Ġaim": 9402,
      "Fe": 9403,
      "Ġdemonstr": 9404,
      "\"]Ċ": 9405,
      "Ġchem": 9406,
      "Ġhelps": 9407,
      "Ġprotected": 9408,
      "ĠSk": 9409,
      "iche": 9410,
      "Ġtests": 9411,
      "çļĦåľ°æĸ¹": 9412,
      "atisf": 9413,
      "çŃīçŃī": 9414,
      "ä¸įå°ĳ": 9415,
      "Ġbon": 9416,
      "ĠCreate": 9417,
      "orith": 9418,
      "oria": 9419,
      "arily": 9420,
      "ahl": 9421,
      "aste": 9422,
      "DP": 9423,
      "install": 9424,
      "heet": 9425,
      "Ġentry": 9426,
      "Ġep": 9427,
      "åįıè°ĥ": 9428,
      "<li": 9429,
      "Ġplans": 9430,
      "æļĤ": 9431,
      "Ġexpos": 9432,
      "Ġworth": 9433,
      "ä¹ĥ": 9434,
      "Ġcreating": 9435,
      "group": 9436,
      "ĠÐ¿ÑĢÐ¸Ð¼": 9437,
      "Ġsv": 9438,
      "åĽºå®ļ": 9439,
      "main": 9440,
      "åĭ¤": 9441,
      "Ġinternet": 9442,
      "Ġcore": 9443,
      "åĽ½æ°ĳ": 9444,
      "ĠPresident": 9445,
      "ĠGroup": 9446,
      "Container": 9447,
      "lying": 9448,
      "Ġleading": 9449,
      "Ġbasis": 9450,
      "RI": 9451,
      "Ġeffic": 9452,
      "Ġul": 9453,
      "ä¼ļæľī": 9454,
      "åĭĴ": 9455,
      "Ġserious": 9456,
      ",åį³": 9457,
      "uman": 9458,
      "Ġadult": 9459,
      "ONT": 9460,
      "Ġgreater": 9461,
      ".Ċ//": 9462,
      "åĪĨéħį": 9463,
      "lichen": 9464,
      "Ġsqu": 9465,
      "ĠÐ¿ÑĢÐ¾ÑĨ": 9466,
      "Ġchoice": 9467,
      "ĠÎ½Î±": 9468,
      "ĠSal": 9469,
      "ãĢĤä¸Ģ": 9470,
      "ĠII": 9471,
      "ĠÑĢÐµÑĪ": 9472,
      "åĪĽä½ľ": 9473,
      "ä¼ĺåĮĸ": 9474,
      "çªģçĦ¶": 9475,
      "ĠDem": 9476,
      "Ġpurpose": 9477,
      "Ġcz": 9478,
      "ÑĥÑİÑī": 9479,
      "åľ¨äºİ": 9480,
      "Ġmobile": 9481,
      "stream": 9482,
      "ç¾Ĭ": 9483,
      "åĮħåĲ«": 9484,
      "onom": 9485,
      "æķ°åŃ¦": 9486,
      "åĵªäºĽ": 9487,
      "That": 9488,
      "Ġfunctions": 9489,
      "Ġbecame": 9490,
      "ĠMarch": 9491,
      "Ġrecently": 9492,
      "Ġpossib": 9493,
      "èĥ½æºĲ": 9494,
      "ĠÑģÐ¸ÑģÑĤ": 9495,
      "Ġswitch": 9496,
      "çĳŀ": 9497,
      "æİ¨èįĲ": 9498,
      "/or": 9499,
      "åģ¶": 9500,
      "ika": 9501,
      "Ġvert": 9502,
      "ĠCheck": 9503,
      "Ġpartners": 9504,
      "¸°": 9505,
      "Ġspeed": 9506,
      "ĠApril": 9507,
      "Ä±nÄ±": 9508,
      "rier": 9509,
      "raf": 9510,
      "Ġlack": 9511,
      "ĠOpen": 9512,
      "Ġstorage": 9513,
      "è¿ħéĢŁ": 9514,
      "Ġassist": 9515,
      "æĿĨ": 9516,
      "èĳ£": 9517,
      ";</": 9518,
      "undo": 9519,
      "å®ŀè¡Į": 9520,
      "Ġsleep": 9521,
      "Ð§": 9522,
      "ĠLes": 9523,
      "Ġmicro": 9524,
      "ĠÐ±ÑĭÑĤÑĮ": 9525,
      "ĠÐ¿ÐµÑĢÐ²": 9526,
      "íķľ": 9527,
      "aren": 9528,
      "Ġnas": 9529,
      "ĠAus": 9530,
[...]
